[PAD]
[UNK]
[CLS]
[SEP]
[MASK]
!
"
#
$
%
&
'
(
)
*
+
,
-
.
/
0
1
2
3
4
5
6
7
8
9
:
;
<
=
>
?
@
A
B
C
D
E
F
G
H
I
J
K
L
M
N
O
P
Q
R
S
T
U
V
W
X
Y
Z
[
\
]
^
_
`
a
b
c
d
e
f
g
h
i
j
k
l
m
n
o
p
q
r
s
t
u
v
w
x
y
z
{
|
}
~
±
·
×
Ø
÷
Ɔ
Ƈ
Ǝ
ˇ
˙
߾
ᆞ
᷁
–
‘
’
“
”
•
…
′
※
ⅹ
←
↑
→
↓
↔
⇒
∙
√
∧
∨
∫
≠
≡
⊙
①
②
③
④
⑤
⑥
⑦
⑧
⑨
⑩
ⓐ
ⓑ
■
□
▣
▲
▶
▷
▼
◆
◈
○
◎
●
◑
★
☆
☎
☏
☞
♡
♣
♥
➠
「
」
『
』
・
ㄱ
ㄲ
ㄳ
ㄴ
ㄵ
ㄶ
ㄷ
ㄸ
ㄹ
ㄻ
ㅀ
ㅁ
ㅂ
ㅃ
ㅄ
ㅅ
ㅆ
ㅇ
ㅈ
ㅉ
ㅊ
ㅋ
ㅌ
ㅍ
ㅎ
ㅏ
ㅐ
ㅑ
ㅒ
ㅓ
ㅔ
ㅕ
ㅖ
ㅗ
ㅘ
ㅙ
ㅚ
ㅛ
ㅜ
ㅝ
ㅟ
ㅠ
ㅡ
ㅢ
ㅣ
ㆍ
㈜
三
中
二
人
代
你
供
們
內
剩
務
可
問
嗎
器
基
幾
必
怪
投
日
時
有
服
機
檔
水
河
海
炀
版
現
理
瓦
的
耀
舊
行
請
財
資
進
金
陶
面
額
餘
가
각
갂
간
갇
갈
감
갑
값
갓
갔
강
갖
갗
갘
같
갚
갛
개
객
갟
갠
갤
갬
갭
갯
갰
갱
갵
갷
갸
갹
걀
걈
걌
걍
걑
걔
걘
거
걱
건
걵
걷
걸
걹
걺
검
겁
것
겄
겅
겆
겇
겈
겉
겋
게
겍
겎
겏
겐
겓
겔
겜
겝
겞
겟
겠
겡
겢
겣
겤
겧
겨
격
겪
견
결
겱
겴
겶
겸
겹
겻
겼
경
겿
곁
곃
계
곅
곈
곌
곗
곘
곙
곚
고
곡
곤
곧
골
곰
곱
곳
공
곶
곷
곺
곻
과
곽
관
괁
괄
괌
괍
괏
광
괒
괗
괘
괙
괜
괞
괨
괴
괸
괼
굅
굇
굈
굉
교
굘
굥
굧
굩
구
국
군
굳
굴
굵
굶
굼
굽
굿
궁
궂
궄
궇
궈
권
궐
궛
궜
궝
궤
귀
귄
귈
귑
귓
규
귝
균
귤
귬
귱
그
극
귻
근
귾
귿
글
긁
긇
금
급
긊
긋
긍
긎
긐
긑
긒
긓
긔
긥
기
긱
긴
긷
길
긹
김
깁
깃
깄
깅
깇
깉
깊
까
깍
깎
깐
깓
깔
깜
깝
깟
깠
깡
깢
깤
깥
깦
깨
깬
깰
깻
깼
깽
깾
꺄
꺗
꺠
꺼
꺽
꺾
껀
껁
껄
껌
껍
껏
껐
껑
껗
께
껜
껬
껭
껴
껼
꼇
꼈
꼉
꼐
꼥
꼬
꼭
꼰
꼳
꼴
꼼
꼽
꼿
꽁
꽂
꽃
꽈
꽉
꽌
꽝
꽤
꾀
꾝
꾸
꾹
꾼
꾾
꿀
꿄
꿇
꿈
꿉
꿋
꿍
꿑
꿔
꿘
꿧
꿨
꿰
뀌
뀐
뀔
뀜
뀝
뀠
뀨
뀬
뀰
끄
끈
끊
끋
끌
끍
끓
끔
끕
끗
끙
끝
끠
끤
끨
끼
낀
낄
낌
낍
나
낙
낚
난
낞
낟
날
낡
낢
낣
남
납
낫
났
낭
낮
낯
낰
낱
낲
낳
내
낵
낸
낻
낼
냀
냄
냅
냇
냈
냉
냊
냏
냐
냑
냔
냗
냘
냠
냡
냣
냤
냥
냬
넀
넁
너
넉
넌
넎
넏
널
넓
넘
넙
넚
넛
넜
넝
넞
넡
넢
넣
네
넥
넧
넨
넫
넬
넳
넴
넵
넷
넸
넹
넺
넻
넼
넾
넿
녀
녁
년
녈
념
녑
녓
녔
녕
녗
녘
녙
녛
녜
녭
녯
녱
노
녹
논
녿
놀
놈
놉
놋
놌
농
놏
높
놓
놔
놕
놖
놘
놜
놧
놨
놩
놯
뇃
뇅
뇌
뇐
뇜
뇟
뇠
뇨
뇩
뇬
뇸
뇹
뇽
눂
누
눅
눈
눌
눓
눔
눕
눙
눚
눠
눤
눨
눰
눴
눵
눼
뉀
뉍
뉑
뉘
뉜
뉠
뉩
뉭
뉴
뉸
뉼
늉
느
늑
는
늕
늗
늘
늙
늛
늟
늠
늡
늣
능
늦
늧
늨
늩
늫
늬
늰
늴
니
닉
닊
닌
닏
닐
님
닙
닛
닜
닝
닞
닠
닢
다
닥
닦
단
닩
닪
닫
달
닭
닮
닯
닳
담
답
닷
당
닺
닻
닼
닽
닾
닿
대
댁
댄
댇
댈
댉
댏
댐
댑
댓
댔
댕
댖
댗
댜
댠
댤
댭
댱
댵
댸
더
덕
던
덛
덜
덞
덟
덤
덥
덧
덨
덩
덬
덮
덯
데
덱
덴
덶
덷
델
뎀
뎁
뎃
뎄
뎅
뎆
뎇
뎈
뎋
뎌
뎐
뎔
뎟
뎡
뎨
뎰
도
독
돈
돉
돋
돌
돔
돕
돗
돘
동
돚
돛
돜
돞
돟
돠
돤
돨
돰
돱
돳
돴
돵
돶
돼
돾
됀
됄
됌
됍
됏
됐
됑
됔
됗
되
됙
된
됝
됟
될
됡
됤
됥
됨
됩
됫
됬
됭
됮
됰
됳
됴
둅
둉
두
둑
둔
둗
둘
둠
둡
둣
둥
둧
둫
둬
둰
둴
둿
뒀
뒈
뒙
뒤
뒨
뒬
뒷
듀
듄
듈
듕
듚
드
득
든
듣
들
듦
듧
듫
듬
듭
듯
등
듲
듳
듵
듶
듷
듸
듼
딀
딉
딋
딌
딍
디
딕
딘
딛
딜
딟
딤
딥
딧
딨
딩
딪
딫
딯
따
딱
딴
딸
땀
땁
땃
땄
땅
땋
때
땍
땎
땐
땓
땔
땜
땝
땟
땠
땡
땦
땧
땨
땬
떄
떈
떔
떙
떠
떡
떢
떤
떦
떨
떯
떰
떱
떳
떴
떵
떶
떷
떺
떻
떼
뗀
뗄
뗍
뗏
뗐
뗑
뗗
뗘
뗜
뗳
뗴
뗼
또
똑
똒
똔
똗
똘
똡
똤
똥
똫
뙤
뚜
뚝
뚤
뚪
뚫
뚬
뚭
뚯
뚱
뚷
뛰
뛴
뛸
뜀
뜁
뜨
뜩
뜬
뜮
뜯
뜰
뜸
뜹
뜻
뜽
뜾
띃
띄
띈
띕
띠
띡
띨
띵
띻
라
락
란
랂
랃
랄
람
랍
랎
랏
랐
랑
랒
랔
랕
랖
랗
래
랙
랜
랟
랠
램
랩
랫
랬
랭
랮
랰
랳
랴
략
랸
럄
럇
럈
량
럊
럑
러
럭
런
럱
럲
럳
럴
럶
럻
럼
럽
럾
럿
렀
렁
렂
렅
렇
레
렉
렌
렐
렘
렛
렜
렝
렣
려
력
렦
렧
련
렩
렫
렬
렯
렴
렵
렶
렷
렸
령
렺
렼
렿
례
롂
롔
로
록
롟
론
롢
롣
롤
롬
롭
롯
롱
롲
롴
롵
롶
롷
롸
롹
롼
뢀
뢌
뢍
뢓
뢜
뢧
뢰
뢱
룃
료
룍
룐
룔
룜
룝
룡
룢
룧
루
룩
룬
룰
룸
룹
룻
룽
룿
뤃
뤄
뤈
뤌
뤗
뤘
뤙
뤼
류
륙
륜
률
륨
륩
륭
륮
르
륵
른
륻
를
륽
륾
릂
릃
름
릅
릇
릉
릋
릍
릎
릏
릐
릔
릠
릡
리
릭
린
릳
릴
릵
릶
릸
림
립
릿
맀
링
맂
맃
맆
맇
마
막
맊
만
맍
많
맏
말
맑
맒
맖
맗
맘
맙
맚
맛
맜
망
맞
맟
맠
맡
맢
맣
매
맥
맨
맬
맴
맵
맷
맸
맹
맺
맻
맽
먀
먄
먈
먐
먕
먗
머
먹
먼
멀
멈
멉
멊
멋
멌
멍
멎
멏
멓
메
멕
멘
멜
멤
멥
멧
멩
멫
멬
며
멱
면
멵
멶
멷
멸
몀
몃
몄
명
몆
몇
몈
몉
몊
몌
몐
몜
몣
모
목
몫
몬
몯
몰
몸
몹
못
몼
몽
몾
뫃
뫄
뫅
뫈
뫌
뫘
뫠
뫼
묀
묘
묜
묠
묨
묫
묭
무
묵
묶
문
묹
묻
물
뭄
뭅
뭇
뭉
뭊
뭌
뭍
뭏
뭐
뭔
뭕
뭘
뭠
뭡
뭣
뭥
뭦
뭫
뭽
뮈
뮌
뮐
뮛
뮤
뮦
뮨
뮬
뮹
므
믄
믇
믈
믐
믑
믕
믜
미
믹
민
믾
믿
밀
밃
밈
밉
밋
밌
밍
밎
및
밑
밒
밓
바
박
밖
반
받
발
밝
밞
밟
밣
밤
밥
밧
밨
방
밪
밬
밭
밮
밯
배
백
밴
밷
밸
뱀
뱁
뱃
뱄
뱅
뱇
뱉
뱌
뱍
뱐
뱓
뱔
뱡
버
벅
벆
번
벉
벊
벋
벌
범
법
벗
벙
벚
벞
베
벡
벤
벥
벧
벨
벰
벳
벵
벼
벽
변
볁
별
볌
볍
볏
볐
병
볓
볔
볕
볘
볜
보
복
볶
볷
본
볹
볻
볼
볽
볾
봀
봂
봄
봅
봇
봉
봌
봏
봐
봑
봒
봔
봗
봘
봣
봤
봫
봬
뵈
뵌
뵐
뵙
뵛
뵜
뵝
뵤
뵬
부
북
분
붅
붆
붇
불
붉
붋
붎
붏
붐
붑
붓
붕
붖
붘
붙
붚
붛
붜
붠
뷁
뷔
뷰
뷱
뷴
뷸
븅
븉
븋
브
븍
븐
븓
블
븛
븜
븝
븥
븨
븬
비
빅
빆
빈
빋
빌
빔
빕
빗
빙
빚
빛
빞
빟
빠
빡
빤
빧
빨
빳
빴
빵
빼
빽
뺀
뺄
뺌
뺍
뺏
뺐
뺑
뺒
뺘
뺴
뺸
뻇
뻈
뻐
뻑
뻔
뻗
뻘
뻡
뻤
뻥
뻬
뼈
뼘
뽀
뽁
뽈
뽑
뽕
뽖
뽚
뽜
뽯
뽰
뾰
뿅
뿌
뿍
뿐
뿔
쀼
쁀
쁘
쁜
쁠
쁨
쁩
쁴
삐
삑
삔
삘
삥
사
삭
산
삲
삳
살
삶
삸
삼
삽
삿
샀
상
샂
샃
샅
샆
샇
새
색
샌
샏
샐
샘
샙
샛
샜
생
샢
샤
샨
샬
샴
샵
샷
샸
샹
샾
섀
서
석
섞
선
섣
설
섫
섬
섭
섮
섯
섰
성
섲
섳
섴
섵
섶
섷
세
섹
센
섽
섿
셀
셈
셉
셋
셌
셍
셎
셑
셒
셓
셔
셕
션
셜
셤
셧
셨
셩
셬
셯
셰
셴
소
속
손
솒
솓
솔
솜
솝
솟
송
솥
솨
솩
솬
솰
솸
쇄
쇠
쇨
쇵
쇼
숀
숋
숍
숏
숑
숒
수
숙
순
숟
술
숤
숧
숨
숩
숫
숬
숭
숮
숯
숲
숳
숴
숼
쉅
쉈
쉐
쉡
쉣
쉬
쉰
쉴
쉼
쉽
쉿
슂
슆
슈
슉
슌
슐
슙
슛
슝
슢
스
슥
슨
슫
슬
슭
슴
습
슶
슷
승
슺
슻
슽
슾
슿
싀
싑
시
식
신
싡
싢
싣
실
싥
싦
싪
싫
심
십
싮
싯
싰
싱
싲
싳
싴
싵
싶
싷
싸
싹
싼
쌀
쌈
쌉
쌋
쌌
쌍
쌏
쌓
쌔
쌤
쌨
쌩
쌰
썅
써
썩
썬
썰
썸
썹
썻
썼
썽
쎃
쎄
쎈
쎌
쎠
쎳
쎴
쎼
쏘
쏙
쏜
쏟
쏠
쏩
쏭
쏴
쐬
쑈
쑘
쑝
쑤
쑥
쑨
쑬
쑴
쑵
쑺
쓌
쓰
쓱
쓴
쓵
쓸
쓼
씀
씁
씃
씅
씆
씉
씌
씨
씩
씪
씬
씯
씸
씹
씻
씽
앂
아
악
앆
앇
안
앉
않
앋
알
앍
앐
앓
암
압
앖
앗
았
앙
앚
앛
앜
앝
앞
앟
애
액
앣
앤
앧
앨
앰
앱
앳
앴
앵
앶
앸
앺
앻
야
약
얀
얂
얃
얄
얇
얌
얍
얎
얏
얐
양
얒
얖
얗
얘
얙
얜
얩
어
억
얶
얷
언
얹
얺
얻
얼
얽
얾
얿
엄
업
없
엇
었
엉
엊
엌
엍
엎
엏
에
엑
엔
엗
엘
엠
엡
엣
엤
엥
엧
엨
엪
여
역
엮
연
엱
엳
열
엹
염
엽
엾
엿
였
영
옂
옃
옄
옅
옆
옇
예
옉
옌
옐
옙
옛
옝
옞
옟
옢
오
옥
온
옩
옫
올
옮
옲
옳
옴
옵
옶
옷
옸
옹
옺
옽
옾
옿
와
왁
왂
완
왅
왈
왐
왑
왓
왔
왕
왘
왛
왜
왝
왠
왤
왭
왰
외
왹
왼
욀
욈
욉
욋
욌
욍
욎
욏
요
욕
욘
욛
욜
욤
욥
욧
욨
용
욪
욫
욬
욭
욮
욯
우
욱
운
욷
울
욺
움
웁
웂
웃
웄
웅
웋
워
웍
원
웑
웒
웓
월
웕
웗
웜
웝
웟
웠
웡
웤
웥
웦
웧
웨
웬
웰
웸
웹
웾
위
윅
윈
윌
윗
윘
윙
유
육
윤
율
윯
윰
윱
윳
융
윹
윻
으
윽
은
읂
읃
을
읅
읆
읈
읉
읋
음
읍
읏
읐
응
읒
읓
읔
읕
읗
의
읙
읜
읟
읠
읨
읩
읭
이
익
읶
인
읹
읺
읻
일
읽
읾
읿
잀
잁
잃
임
입
잆
잇
있
잉
잊
잋
잌
잍
잎
잏
자
작
잔
잕
잖
잗
잘
잚
잛
잜
잟
잠
잡
잢
잣
잤
장
잦
잧
잩
잫
재
잭
잰
잴
잼
잿
쟁
쟈
쟌
쟎
쟘
쟜
쟝
쟤
저
적
전
젅
젆
젇
절
젊
점
접
젒
젓
젔
정
젖
젗
젘
젛
제
젝
젠
젣
젤
젬
젭
젯
젰
젱
젲
젶
져
젹
젺
젼
졀
졈
졉
졋
졌
졍
졎
졐
졓
졔
조
족
졲
존
졷
졸
좀
좁
좃
종
좆
좋
좌
좍
좐
좔
좜
좠
좡
좢
좨
좼
죄
죈
죌
죔
죕
죗
죙
죠
죡
죧
죰
죱
죳
죴
죵
죶
죷
죹
죺
죻
주
죽
준
줄
줋
줌
줍
줏
중
줔
줕
줗
줘
줚
줜
줫
줬
줭
줸
쥇
쥈
쥐
쥣
쥤
쥬
쥭
쥰
쥴
쥼
즁
즈
즉
즋
즌
즏
즐
즘
즙
즛
증
즞
즤
즥
즨
즴
즹
지
직
진
짆
짇
질
짐
집
짓
징
짖
짘
짙
짚
짛
짜
짝
짠
짢
짤
짦
짧
짫
짬
짭
짱
짲
째
짹
짼
쨉
쨋
쨌
쨔
쨩
쨰
쩄
쩌
쩍
쩐
쩔
쩜
쩝
쩠
쩡
쩧
쩨
쪄
쪼
쪽
쪾
쫀
쫃
쫄
쫌
쫍
쫑
쫒
쫓
쫘
쫙
쬐
쬬
쭈
쭉
쭌
쭐
쭘
쭙
쭝
쭤
쭸
쮜
쮸
쯉
쯔
쯕
쯤
쯥
쯧
쯩
찌
찍
찐
찓
찜
찝
찟
찡
찢
차
착
찬
찭
찮
찯
찰
참
찹
찻
찼
창
찾
찿
챂
챃
채
책
챈
챔
챕
챗
챙
챚
챝
챟
챠
챡
챤
챦
챳
챵
처
척
천
첞
첟
철
첧
첨
첩
첫
첬
청
첮
첱
첳
체
첵
첶
첸
첻
첼
쳅
쳇
쳉
쳊
쳌
쳍
쳏
쳐
쳔
쳘
쳣
쳤
쳥
쳬
초
촉
촌
촐
촘
촙
촛
총
촞
촤
촬
촹
촿
쵀
최
쵝
쵣
쵤
쵯
쵳
쵸
춍
추
축
춘
춚
춛
출
춝
춞
춟
춠
춡
춢
춣
춤
춥
춧
충
춪
춫
춭
춮
춯
춰
춱
춴
춸
췃
췄
췌
췟
취
췻
츄
츈
츌
츙
츠
측
츤
츨
츰
층
츻
츼
칄
칑
치
칙
친
칝
칞
칟
칠
칢
침
칩
칫
칭
칮
칲
카
칵
칸
칻
칼
캄
캅
캇
캉
캊
캌
캍
캐
캑
캔
캕
캘
캠
캡
캣
캥
캬
캽
캿
컈
커
컥
컨
컬
컴
컵
컷
컸
컹
케
켁
켄
켈
켐
켑
켓
켔
켕
켛
켜
켝
켠
켤
켭
켯
켰
켱
켴
켷
켸
코
콕
콘
콛
콜
콤
콥
콧
콩
콭
콰
쾅
쾌
쾨
쿄
쿠
쿡
쿤
쿧
쿨
쿰
쿱
쿵
쿷
쿺
쿼
쿽
퀄
퀘
퀴
퀵
퀸
큐
큔
크
큭
큰
클
큼
큽
큾
킁
킄
킅
킈
킉
키
킥
킨
킬
킴
킵
킷
킹
타
탁
탄
탆
탇
탈
탍
탐
탑
탓
탔
탕
탖
탙
태
택
탞
탟
탠
탣
탤
탬
탭
탯
탱
탸
탹
턀
턕
터
턱
턴
털
텀
텃
텄
텅
텉
텋
테
텍
텏
텐
텔
템
텝
텟
텡
텨
텩
텬
텰
텴
텽
톄
톈
톌
토
톡
톤
톧
톨
톰
톱
톳
통
톶
톷
톹
톻
톼
퇄
퇑
퇘
퇴
퇸
퇼
툉
툐
툥
투
툭
툰
툴
툼
툽
퉁
퉈
퉛
퉤
퉹
튀
튄
튈
튕
튜
튠
튬
튱
트
특
튼
튿
틀
틈
틉
틋
틍
틎
틏
틑
틓
틔
티
틱
틴
틷
틸
팀
팁
팄
팅
팊
파
팍
팎
판
팓
팔
팜
팝
팟
팠
팡
팥
팦
패
팩
팬
팯
팰
팸
팻
팼
팽
팾
퍄
퍅
퍈
퍙
퍠
퍼
퍽
펀
펄
펌
펍
펑
페
펙
펜
펠
펨
펫
펭
펴
펵
편
펹
펻
펼
폄
폇
폈
평
폋
폍
폐
포
폭
폰
폱
폳
폴
폼
폽
폿
퐁
퐂
퐃
퐄
퐆
퐈
퐉
퐐
푀
표
푠
푯
푱
푸
푹
푼
풀
품
풉
풋
풍
풐
풓
풰
퓌
퓨
퓰
퓸
픂
프
픅
픈
픉
플
픔
픕
픙
피
픽
핀
필
핅
핋
핌
핍
핏
핑
핔
핗
하
학
한
핝
핞
핟
할
핣
핤
핥
핧
함
합
핪
핫
핬
항
핮
핰
핳
해
핵
핶
핸
핻
핼
햄
햅
햇
했
행
햊
햌
햍
햏
햐
햔
햘
햡
햣
햤
향
햬
햿
헀
헁
허
헉
헌
헐
헑
험
헙
헛
헜
헝
헞
헠
헣
헤
헥
헨
헬
헷
헸
헹
헿
혀
혁
현
혅
혈
혐
협
혓
혔
형
혖
혘
혜
혠
혰
혱
혵
호
혹
혻
혼
혿
홀
홇
홈
홉
홋
홍
홐
홑
홒
홓
화
확
홖
홗
환
홛
활
홟
홤
홥
홧
황
홬
홰
홱
횅
회
획
횐
횔
횜
횟
횡
효
횬
횹
횼
횽
후
훅
훈
훌
훑
훔
훕
훗
훙
훚
훜
훤
훨
훼
휍
휘
휠
휫
휴
흄
흉
흊
흐
흑
흔
흘
흙
흚
흠
흡
흥
흩
희
흭
흰
힂
히
힉
힌
힐
힘
힙
힛
힜
힝
힣
️
︙
（
＊
，
－
．
１
２
３
７
？
＾
ｂ
ｎ
ｏ
ｒ
ｗ
💕
##끔
##5
##0
##크
##카
##드
##로
##워
##서
##도
##8
##1
##2
##라
##금
##즈
##니
##명
##깐
##요
##z
##s
##M
##b
##r
##n
##조
##회
##구
##선
##동
##B
##K
##T
##R
##N
##용
##준
##세
##운
##징
##가
##사
##람
##P
##f
##m
##a
##l
##우
##안
##소
##유
##예
##납
##적
##인
##벌
##ㅇ
##거
##래
##중
##지
##계
##좌
##관
##갈
##ㅠ
##죄
##송
##합
##다
##직
##였
##을
##성
##질
##레
##시
##6
##력
##케
##릴
##신
##청
##하
##려
##고
##콕
##정
##은
##행
##겨
##야
##아
##진
##i
##퉁
##입
##릅
##면
##련
##4
##3
##한
##포
##물
##상
##황
##는
##궁
##해
##위
##9
##7
##함
##료
##점
##이
##앙
##마
##미
##할
##셨
##나
##여
##깨
##임
##쭉
##쳤
##증
##w
##S
##e
##d
##F
##o
##렁
##문
##오
##먹
##I
##필
##데
##혀
##천
##어
##떻
##게
##힙
##음
##E
##x
##p
##풍
##것
##버
##철
##경
##자
##ㄴ
##편
##했
##득
##져
##수
##영
##y
##ㅈ
##타
##루
##무
##순
##말
##죠
##강
##기
##보
##긴
##호
##란
##까
##년
##결
##제
##를
##몰
##돌
##와
##U
##프
##승
##공
##롱
##맨
##u
##t
##g
##산
##찌
##윤
##주
##생
##부
##대
##네
##전
##복
##일
##핏
##십
##목
##개
##염
##리
##린
##난
##액
##짜
##트
##근
##권
##류
##롯
##간
##k
##방
##알
##볼
##럽
##q
##섰
##톡
##노
##러
##런
##흉
##h
##홍
##익
##의
##밤
##빙
##원
##월
##그
##럼
##령
##맞
##집
##눈
##에
##실
##춘
##비
##뚜
##있
##뽁
##퍼
##ㅎ
##눠
##코
##발
##뻐
##숙
##옥
##화
##내
##처
##통
##랫
##분
##치
##땀
##록
##랑
##모
##터
##몇
##ㅜ
##D
##혼
##꾸
##틀
##효
##등
##C
##ㅡ
##허
##던
##출
##두
##번
##설
##탁
##장
##활
##당
##토
##르
##쳐
##군
##페
##차
##혁
##혜
##눌
##되
##뚝
##밍
##급
##총
##으
##며
##현
##삼
##됫
##더
##날
##었
##형
##륜
##렸
##태
##른
##피
##저
##엔
##택
##먼
##든
##ㅗ
##락
##뇨
##왕
##만
##써
##체
##튼
##재
##석
##춰
##션
##온
##녀
##작
##촌
##업
##창
##X
##A
##L
##쁨
##림
##스
##싶
##칠
##쩐
##색
##베
##쟁
##연
##뱃
##값
##ㅏ
##탈
##판
##ㄱ
##헌
##식
##쓰
##파
##습
##남
##향
##ㅣ
##님
##티
##엑
##배
##심
##○
##역
##감
##규
##과
##왔
##육
##테
##각
##c
##히
##엘
##W
##찰
##욧
##율
##멍
##줄
##바
##쟈
##희
##빈
##렛
##뉴
##너
##ㅓ
##쥬
##켜
##곡
##법
##벼
##병
##누
##곳
##환
##언
##될
##받
##달
##듬
##못
##돈
##교
##휴
##ㄲ
##봉
##폐
##된
##쓱
##따
##불
##G
##디
##j
##닞
##외
##갔
##단
##학
##막
##응
##륵
##멘
##골
##ㄸ
##건
##찬
##국
##H
##능
##절
##닥
##항
##착
##쿠
##담
##젠
##줘
##풀
##매
##클
##립
##엇
##악
##첩
##ㅚ
##양
##후
##종
##름
##폭
##별
##확
##햇
##애
##곤
##속
##빳
##패
##ㄷ
##길
##둘
##폴
##왓
##뭐
##갱
##투
##O
##친
##뱅
##꺼
##v
##께
##끼
##ㅢ
##채
##둔
##추
##새
##반
##냐
##량
##본
##검
##ㄹ
##백
##초
##뭉
##술
##팡
##참
##앱
##민
##팔
##걸
##쩌
##없
##암
##북
##■
##브
##메
##변
##커
##봐
##짐
##ㄻ
##믄
##뜨
##렉
##릭
##충
##컴
##낼
##팅
##덕
##블
##빠
##킬
##표
##꿔
##겠
##텍
##딩
##퇴
##뤄
##쏠
##렌
##얼
##팩
##댜
##열
##슷
##씁
##론
##품
##돼
##J
##Y
##험
##플
##낸
##들
##랐
##견
##엽
##힘
##릐
##례
##텨
##박
##ㅉ
##긍
##뎅
##쳉
##격
##쉽
##셧
##족
##깟
##엄
##쉬
##옽
##벽
##Z
##약
##짝
##룩
##잔
##떡
##썬
##랩
##힌
##귀
##올
##망
##ㅁ
##같
##깝
##묵
##릎
##광
##떤
##랗
##때
##늘
##완
##꼬
##썽
##독
##졌
##V
##폰
##닏
##랭
##겁
##균
##흐
##흑
##템
##븝
##ㅂ
##답
##깜
##넹
##ㅅ
##앉
##닝
##취
##뢰
##랄
##키
##봇
##흥
##맊
##맴
##셔
##측
##침
##슨
##평
##솜
##꼽
##촬
##접
##꿀
##싱
##묘
##툴
##맹
##렇
##콩
##글
##울
##놔
##엉
##ㅋ
##씬
##센
##렷
##웠
##봤
##줍
##빌
##층
##픽
##훈
##딱
##됭
##몬
##엿
##밀
##힐
##ㅊ
##느
##넫
##돠
##닌
##렴
##겟
##잘
##렬
##갑
##슬
##캐
##압
##깔
##째
##틱
##썼
##떳
##륨
##않
##렵
##존
##쁘
##욮
##머
##웅
##젼
##붙
##렐
##녁
##씨
##손
##쾌
##둥
##텐
##쎼
##범
##껏
##낙
##흔
##탕
##퀴
##졸
##읍
##쎄
##럴
##앴
##쩜
##밖
##땅
##낫
##또
##뱉
##뒀
##껴
##뿐
##끌
##녕
##끄
##램
##껄
##찾
##앗
##듭
##둑
##김
##봄
##큼
##싸
##잖
##혈
##랜
##냈
##욕
##궜
##껍
##땡
##ㄶ
##씀
##썹
##젝
##콜
##칸
##갠
##ㅛ
##앳
##틸
##융
##뭇
##댑
##푸
##닙
##살
##핮
##널
##놨
##혔
##쨋
##됩
##높
##벤
##닐
##셋
##텔
##놓
##둬
##겼
##듯
##볕
##룬
##깁
##킹
##떨
##솔
##닷
##빛
##댔
##젆
##Q
##논
##칭
##웨
##쌌
##덟
##냅
##갸
##ㅔ
##짢
##냥
##딕
##딛
##링
##촉
##탄
##좋
##칙
##칫
##쩧
##쨌
##넺
##좀
##섭
##돤
##엠
##쇄
##객
##럭
##긋
##ㅘ
##헤
##옵
##뇽
##곶
##률
##욤
##멈
##억
##곽
##끝
##축
##릳
##넘
##밴
##룡
##셜
##줬
##잠
##늠
##떠
##젭
##났
##책
##쩍
##넥
##극
##쯤
##획
##잇
##툼
##띠
##농
##뭔
##닉
##늦
##룸
##겻
##끗
##욱
##혹
##ㅆ
##므
##넷
##숨
##랍
##략
##맥
##ㅍ
##숭
##륙
##쉐
##굴
##땨
##덤
##왜
##털
##쪼
##갖
##몽
##딪
##핑
##랙
##됄
##꾼
##걱
##펴
##뭄
##덱
##윗
##궛
##댱
##킨
##끈
##햌
##쪽
##큐
##텀
##쭘
##슴
##넵
##눅
##냄
##웃
##켓
##먄
##찮
##밥
##멓
##솥
##쭤
##텝
##큰
##즉
##닛
##춤
##튜
##봣
##잉
##섬
##쌉
##죽
##둡
##뜯
##움
##깊
##컬
##컷
##퀵
##찍
##툐
##칼
##넣
##픈
##꿨
##낭
##협
##샤
##맣
##턴
##쪄
##꿧
##았
##벙
##딴
##꿍
##삭
##둉
##녈
##홀
##떄
##랬
##읒
##낢
##숩
##츠
##쬐
##샛
##캡
##뿔
##딜
##킵
##딸
##뜸
##똑
##콘
##뗑
##햄
##릉
##쌈
##★
##힂
##뜬
##롤
##잊
##탆
##잎
##귤
##룰
##혐
##퓨
##놀
##옴
##특
##빵
##척
##즤
##잌
##싹
##릿
##낄
##랴
##뒤
##됀
##휘
##흘
##쩡
##헉
##ㅌ
##즞
##팠
##췄
##뷰
##욌
##겹
##겧
##킴
##샵
##첨
##툰
##빨
##뎌
##딧
##넨
##촘
##옹
##뀐
##□
##햔
##얀
##롭
##쇼
##콤
##쇠
##낍
##잀
##듣
##펀
##멸
##쥐
##벅
##겅
##붕
##낌
##팀
##앨
##죵
##헙
##믈
##눔
##셉
##쁜
##흠
##넬
##븐
##욪
##꽃
##겢
##캉
##봅
##쓴
##탠
##닫
##념
##갓
##딘
##ㅖ
##쿄
##쵸
##맛
##캔
##뎀
##줌
##룹
##셀
##엎
##숫
##첞
##ㅄ
##짓
##묻
##섯
##콥
##춚
##밧
##츨
##팾
##쇨
##퉹
##큾
##텴
##싪
##랮
##뚪
##숋
##잡
##둰
##켰
##겐
##앤
##늬
##댈
##눕
##댓
##닭
##탑
##턱
##슺
##샘
##됬
##탤
##웁
##쩔
##뀌
##잣
##ㅐ
##맘
##꼴
##럿
##돗
##쓸
##핵
##삑
##꿉
##댸
##똥
##딨
##뱓
##탬
##솬
##뜩
##쁩
##얘
##젤
##낟
##롬
##쉈
##컥
##쩝
##녜
##핀
##뭏
##덯
##괜
##뎐
##꼈
##뀝
##쑥
##궈
##틈
##췌
##덜
##땐
##삐
##홈
##헐
##뉘
##챦
##뮬
##솨
##됏
##괄
##즌
##뵙
##흡
##듀
##깅
##탐
##엏
##맙
##ㅃ
##최
##쿼
##뜻
##컵
##옆
##뜰
##쿵
##짱
##렀
##톱
##솟
##튬
##빼
##덩
##굼
##꽂
##덥
##꼼
##펙
##퐁
##쌍
##펑
##쿤
##뉜
##꼐
##놈
##핥
##뿌
##잭
##윈
##뛰
##돵
##땠
##퀄
##뤘
##샹
##띃
##빡
##넴
##젓
##춥
##쨩
##밑
##ㄳ
##찡
##꿋
##많
##꿈
##델
##룻
##ｒ
##ｏ
##ｗ
##ｎ
##쌀
##챗
##삿
##칟
##룽
##갯
##톤
##됐
##셈
##맷
##넓
##뚤
##컨
##엤
##썩
##뺄
##낮
##낳
##캣
##옇
##딤
##홉
##꽝
##욥
##틴
##똘
##칞
##팽
##뎇
##뚱
##잃
##띨
##엥
##슈
##맡
##몊
##숲
##펜
##뺑
##랏
##숴
##３
##삲
##탓
##헬
##찜
##덴
##괴
##댄
##첸
##헷
##쁠
##얃
##탭
##뜹
##뉩
##겸
##풋
##몀
##쿨
##릇
##짠
##굅
##귿
##뉠
##챠
##덞
##걀
##넛
##뛴
##얄
##윳
##및
##푹
##돔
##듸
##팜
##헛
##넉
##늕
##밨
##랒
##벳
##곧
##샨
##갚
##빴
##앟
##슐
##읙
##힝
##챃
##훌
##씽
##딥
##볶
##졔
##잏
##맺
##깄
##벨
##겣
##욘
##얗
##짼
##떈
##닜
##퀘
##ㅕ
##짤
##륭
##곱
##궐
##뷴
##튿
##됴
##튠
##몸
##옙
##츰
##먀
##즘
##댁
##닿
##맸
##폼
##뀔
##뮤
##엌
##앞
##쭈
##팸
##옷
##긊
##괘
##씸
##빗
##뿍
##깡
##뻑
##밋
##굈
##츄
##빔
##늉
##냇
##봏
##싼
##씌
##겤
##갤
##앚
##땜
##뮨
##썸
##펠
##녔
##멋
##♥
##젯
##싯
##뒷
##꼭
##햣
##탔
##벡
##깃
##훼
##낰
##볍
##헨
##퇸
##눴
##빤
##굽
##됍
##→
##뻘
##걍
##엡
##핫
##녹
##즏
##끊
##맀
##ㅑ
##첫
##뵈
##엣
##냉
##픕
##젶
##닽
##룍
##헿
##곰
##픔
##뺌
##랖
##맵
##껀
##팬
##햐
##겓
##묶
##겆
##벗
##쯔
##뻤
##넌
##돋
##얏
##ㆍ
##푼
##텅
##껜
##쉡
##칩
##뀜
##셍
##꺄
##뱀
##팟
##킷
##뼈
##겜
##깠
##팎
##꾹
##떵
##뇌
##텋
##샌
##핸
##겋
##탱
##쁀
##씩
##됮
##슭
##곺
##꺠
##둠
##굵
##팍
##ㅟ
##눼
##껑
##쭙
##멤
##믹
##짚
##칵
##깍
##숑
##뮹
##꼇
##톨
##튀
##괞
##돕
##닦
##숍
##졋
##낀
##갛
##닼
##튕
##뇹
##썰
##떼
##윙
##꼿
##훗
##늗
##폈
##꽁
##즁
##귄
##썻
##ㄵ
##쭐
##뽑
##뀠
##힛
##듈
##늣
##렝
##놧
##팥
##밌
##똔
##챤
##삽
##듦
##맑
##깥
##빋
##뿅
##쑤
##쿱
##뷔
##뵛
##찝
##쏙
##쎈
##띄
##멜
##왑
##빽
##횟
##렘
##멧
##퓸
##닺
##쎴
##↓
##흰
##걷
##뛸
##니다
고객
습니다
세요
확인
케이
OO
합니다
으로
지금
뱅크
##니까
는데
번호
에서
감사
카드
그러
구요
계좌
상담
어요
진행
이용
가능
입니다
드리
저희
대출
입력
OOO
안녕
인증
다시
아니
종료
부탁
등록
은행
이제
셔서
발급
신청
께서
나요
자동
경우
연결
##세요
잠시
혹시
전화
말씀
한도
거래
신분
신분증
##까요
습니까
통화
해서
는데요
본인
##가요
그러면
##CE
##EN
##IL
SIL
##ENCE
SILENCE
됩니다
통장
까지
드릴
이체
문자
##립니다
금액
드립니다
비밀
사용
가입
라고
가지
셔야
그렇
정보
그래
다음
동안
거든
거든요
연장
부분
변경
어떻
여보
상품
때문
여보세요
경로
촬영
안내
예요
휴대
선택
입금
어떻게
십니까
기다
화면
그거
##해서
제출
도와
그럼
사항
휴대폰
이거
기다려
다른
면은
바로
이상
돼요
해야
##십니까
아요
##이지
영상
체크
##랍니다
금융
바랍니다
내용
조회
예금
으셨
에요
##데요
##페이지
홈페이지
메뉴
으시
공인
출금
만기
제한
##드릴
관리
증서
금리
시간
서류
결제
으십니까
양해
##드릴까요
추가
로그
무엇
자리
연락
입출
해요
도와드릴까요
개설
보여
다면
입출금
문의
해당
주민
뱅킹
혜택
로그인
오늘
어떤
신용
으신
해지
직원
회원
센터
어서
그래서
먼저
건가요
클릭
발송
백만
##00
필요
납부
들어
전체
상태
보내
상환
드렸
적금
하루
으세요
실명
간편
근데
원활
조금
내역
실행
도록
부터
보이
기간
한번
##아요
궁금
마이
어려
##너스
##카드
면허
아니요
마이너스
해제
직장
그런
나오
그리
방법
위하
이자
처리
된다
그리고
현재
소득
접수
네요
거나
요청
으셔
이게
다고
니까
잖아요
라는
는지
개월
운전
완료
면허증
성함
이나
그냥
아직
지만
설정
##렇게
눌러
직접
버튼
이렇게
##구요
우대
체크카드
잠깐
으면
여기
##인트
포인트
##메라
카메라
목적
등록증
그게
거기
기기
그렇게
정확
그래요
하나
실적
네이
일단
네이버
으셔서
만약
더라
우선
기존
관련
##게요
또는
전환
들어가
위해서
이번
OT
OTP
##려고
가요
죄송
이런
포함
동일
이후
사진
페이
으실
기관
수수
수수료
어려운
겁니다
신가요
급여
십시
따라
언제
드려
응답
##께요
인증서
교통
##비스
서비스
핸드
단계
계속
핸드폰
자금
적립
동의
취소
누르
조건
그러면은
에스
어디
통해서
사업
모두
보험
이해
소요
15
아이
접속
군요
충족
일자
팩스
정도
십시오
심사
최대
주소
해외
프로
질문
아까
연체
승인
증빙
증명
여섯
적용
모르
날짜
다는
신다
신고
여부
기준
괜찮
얼마
스피
스피커
생년
어렵
준비
저기
기능
발생
##이트
아래
셔도
타행
송금
신규
영업
참고
지급
타인
뒷면
100
네에
이요
따로
실물
설치
정면
없이
아니면
얼굴
나와
드릴까요
거절
담당
천만
##월일
생년월일
정상
정기
정지
예정
통신
처음
통해
위해
다가
체한
걸로
부서
##22
에이
1522
드릴께요
아서
개인
배송
코드
대해서
돼서
할려고
어야
인가요
면서
예금주
더라구요
증액
마지
마지막
연금
십니다
원금
오류
드린
알려
분실
자유
20
여쭤
인데
음성
에게
최근
텐데요
건강
은데
된다고
라면
등급
여덟
하단
업무
려고
증명서
고맙
에이알
사업자
처럼
모든
##데이트
업데이트
잔액
숫자
당일
위한
으니
아닌
##대로
만기일
24
결과
수령
출처
생기
1000
으며
인지
실제
후불
만들
같이
인데요
내려
계시
톡톡
수고
즉시
요금
계신
알림
팝업
직장인
위치
일반
바라
라서
출력
탈퇴
대한
아파
아파트
자료
또한
10
한다
항목
그대로
##금리
별도
불가
우대금리
제외
그걸
##마트
터치
드릴게요
다소
스마트
전송
잘못
된다는
명의
초점
비상
인터
근로
전달
고지
앞면
인터넷
이어
기본
캐시
자체
대상
새로
비상금
어려우
그니까
될까요
너무
불러
고지서
라도
대로
상관
볼게요
기타
올려
이름
을까요
해도
사고
많이
삼월
소지
보안
삭제
수정
밖에
관리비
모습
그것
노출
저장
이미
이어폰
납입
아이디
다만
담보
지원
아무
니까요
예약
달라
으실까
건데
답변
가상
KT
실까요
멤버
국민
계획
방식
더블
한테
건데요
일부
이벤
이벤트
건지
어느
상단
상황
어서요
출시
겁니까
##드려
메세
절차
원하
메세지
실례
중도
시도
내일
반사
그때
양도
생활
무료
한가요
인출
일시
오른
얘기
듀얼
농협
모바
모바일
계십니까
OOOO
어제
우리
따라서
려면
눌렀
여러
사유
수락
시점
오른쪽
한데
아닙
한데요
그쪽
시작
사람
대환
바이
남길
아마
바이오
원리
반갑
보유
현금
회사
그건
##라인
그런데
##요일
유지
사월
자세
가까
신다면
문제
소중
압류
원리금
불편
11
은데요
최초
오후
맞춰
더라도
할려
공지
시백
드려요
판매
##다고
방금
아닙니다
바꿔
##든지
통지
액정
슬림
고요
이내
나가
문구
의해
편안
##러스
무슨
사이
제공
보통
플러스
멤버십
인식
이전
##그램
이동
PC
입니까
나왔
##센트
보다
으니까
퍼센트
들어오
오전
이랑
지나
똑같
변동
이력
재직
폐기
텐데
##tp
처벌
원래
다운
계산
애요
추후
상담원
아이폰
일치
나중
유선
할게요
연락처
##등록
재등록
30
체가
기업
넘어
아야
기억
##드리
최우
최우선
다름
장기
수신
후방
던데
만큼
##다가
봐야
미니
온라인
당월
더라고
##부터
비대
우측
멈춰
필수
돌려
##잖아요
요거
보일
인정
공과
케이티
미납
프로그램
니깐
삼성
구매
미리
공과금
가까이
중간
약속
가맹
마다
도제
몰라
이메
이메일
가맹점
서로
otp
##는데
번거
더니
과정
아예
이월
된다면
라구요
일월
네네
아니면은
해결
##다면
전월
계약
하고
에다가
고자
달라요
전혀
인하
기다리
게끔
활용
##다는
도움
초과
감액
50
이라
남겨
신데요
대포
12
생활비
상세
국내
할까요
저축
차감
비춰
수단
매월
나와요
일억
연동
관심
행복
나온
든지
더라고요
반환
어려워
카카
카카오
으셔야
복사
셨잖아요
그러니까
대금
로부터
전산
표시
마시
넘어가
빠져
인제
##어요
오래
생각
푸시
자꾸
중단
보험료
재산
25
신다고
녹음
공휴
약간
18
사이트
공휴일
할인
담당자
행원
##55
드려도
왜냐
방지
매체
나머
검색
이걸
나머지
링크
아뇨
1155
그럴
돼야
그걸로
매달
부과
종류
보냈
번거로
서요
약정
일정
빠른
들리
전화기
다르
지정
나올
##IS
대리
##ISA
전액
가려
눌러서
번거로우
설명
김현
통한
자격
경찰
공공
계세요
인가
사실
맹점
통신비
VISA
수진
평일
지문
지연
왜냐면
라든지
쇼핑
되게
오월
확인서
간단
그래도
충전
통신사
경과
요구
대해
중지
유효
상품명
바닥
한지
남기
##입니다
볼려고
36
페이지
철회
월급
##거운
즐거운
이알
순서
증권
글자
자동차
한다고
계신가요
##퓨터
컴퓨터
방문
내려놓
다면은
기다려서
300
##예금
아닌가요
정기예금
한다면
반영
가장
데이
아아
영향
Ti
##두리
테두리
업체
이것
지난
요건
초기
바꾸
그쵸
데이터
해서요
오프
순차
##MS
미만
단위
왼쪽
며칠
으셔도
늘리
Tip
효리
으면은
신한
GS
드려야
바뀌
따른
그랬
보호
정해
##던가
단기
메일
볼께요
공단
걸리
쩜이
##이드
##로드
비씨
교통카드
##래도
어도
청구
예전
최고
제일
착용
신다는
정확히
가져
시중
대출금
칠월
부족
201
사본
체하
다구요
ㅠㅠ
살짝
AT
십시요
다섯
각각
연도
이쪽
빨리
ATM
이유
우편
지역
했었
팔월
들어와
할려면
SMS
프린
현황
득실
채널
주소지
쿠폰
다운로드
사서
빠르
관계
면제
사서함
려는
오픈
모양
글씨
바라봐
지요
비스
내부
들어갔
걸려
김점
안전
자택
##드려요
정말
증여
저번
사전
법원
도래
##수증
나옵
인한
최소
십이
십이월
두드려
개명
사기
영수증
됩니까
라서요
투자
올라
최저
아무래도
차단
표기
호출
가입자
전기
빠져나
선명
공제
얼마나
내드리
외부
역서
##드로
안드로
제휴
아서요
차이
안드로이드
##아웃
소액
##려면
잔고
이율
준성
평가
과세
가계
메모
메시
기재
로그아웃
365
편하
메시지
경찰서
시스
못하
그죠
##RS
부탁드려요
ARS
똑같이
이루
버전
므로
상대
반송
으셨어요
봐요
용돈
신데
만료
들어왔
마스
##동산
주말
아래쪽
부동산
할라
머니
나와서
자세히
할께요
실패
지점
보입니다
16
산정
만드
정책
요즘
착오
지원금
드려서
나옵니다
거주
상품권
미정
진위
저녁
부탁드리
프린트
훼손
일환
다를
와서
BC
새로운
파일
신용도
ㅜㅜ
최대한
##ay
뭔가
##드시
반드시
17
기록
검증
안타
산출
임대
플로
대학
중요
눌러야
대기
올해
스토
금요일
편의
내주
스토어
시스템
안타깝
제세
##드립니다
수취
법인
다행
부탁드립니다
횟수
을려고
대신
##프트
##없이
등록금
바탕
지방
단기간
분할
말일
감독
월세
##RL
URL
완전
오만
200
목표
긴급
퇴직
목록
계셔
냐면
##십니다
or
재개
다니
어야지
피해
운영
대표
감독원
주택
전부
홍화
근절
조정
몰라서
작년
kt
이라든지
아홉
도로
무조
무조건
##자기
OOOOO
갑자기
주신
전하
이건
일곱
전일
다수
와이
빠져나가
기프트
에스엠
기프트카드
도시
##운데
예상
스마트폰
해드려
비씨카드
방향
해드릴까요
누적
##바닥
세금
홀로
손바닥
균등
으니까요
가스
두들
휴일
어쨌
원본
보낼
시켜
앞서
가운데
떠요
티엠
19
라고요
티피
어머
##집니다
인해서
확정
기대
차미
으십니다
한달
눌르
##회사
사만
공유
편의점
추천
어려울
업종
일원
맞춰서
어려워요
써야
틀리
구월
주기
프로필
시일
##가지
어쨌든
짜리
거의
김양
교체
오티
사건
마찬
으나
주의
습니
경쟁
##봐도
한국
라던가
움직
마찬가지
##레이
버리
재난
경하
어차
어차피
경쟁력
놨는데
환불
지참
전자
##거나
알아
대책
한다는
중앙
할려구요
가리
현상
항상
완납
백승
모드
된다구요
예치
유의
복권
동행
실시
볼까요
함께
마을
후면
박스
근무
려는데
기사
해약
김양화
전문
적요
영문
플레이
00
월요일
정산
대략
##려구요
당장
##파이
와이파이
오프라인
피싱
전원
원만
의해서
아닌데
달라질
도착
갱신
두들겨
방송
천천
천천히
는지요
가족
13
어두
##려서
이하
내보
##든가
체로
소리
미치
암호
##드릴께요
디자
부탁드릴께요
보이스
가져오
나눠
디자인
올리
집니다
##던지
정성
완전히
이걸로
여유
바꿀
매일
상관없이
전용
으셨던
돌아
부팅
대면
그인
내보내
##선희
손지
건별
여서
여쭙
종합
적혀
비교
상속
주식
될지
보여요
이럴
움직이
금고
000
어려우세요
등기
유리
아도
해약금
청시
진짜
점검
거쳐
단순
##라고
21
구나
고정
상대방
기종
마음
##oo
효력
드릴려고
기계
돌려주
내받
환급
탑재
동시
인입
제도
들으
생성
가깝
혹시나
대부
31
##boo
일련
까요
##ayboo
떨어
담사
##직원
실시간
##aybooc
최장
나와야
저거
임직원
올바
아침
지로
수취인
내리
니다
오일
어떠
차후
아하
정리
려구요
던데요
익일
가까운
결정
보낸
증권사
여쭤봐도
급하
약관
올라가
고서
그런가요
##동안
명확
누구
이러
나열
텍스
환산
들려
객님
물론
서울
제대로
마련
올바르
마스크
배우
신지
에러
상승
장애
가산
택시
우편물
2019
주일
이외
지아
이민
오피
상하
##가락
손가락
기한
불입
시키
풀리
고도
듯이
CH
건당
떠서
별개
안경
혹은
이민규
합산
계정
매출
체시
알아보
202
어려워서
자정
줘야
신용카드
국세
성명
정해져
##페이
메인
식별
안기
출한
연말
어려우실
paybooc
으셨다면
주세요
일수
십사
##정지
당연
계약서
판단
결제금
약정서
대비
당시
안기순
##랜드
된단
##수도
바꿨
뭔가요
최종
자동차세
편리
대화
보여집니다
명세
인명
송지
해야지
기반
상하수도
PD
모서
볼려구요
PDF
모서리
실려면
제시
용시
co
오니
올려서
놨어요
부여
이선희
여쭤볼
금일
이어서
범위
14
나이
국세청
당분
다고요
뭘로
당분간
재발
갈아
들으시
수술
시정지
라던지
발신
입시
버렸
는다고
실제로
##000
통합
어두운
계산기
##니깐
명세서
구만
지났
그램
박호
브랜드
멀리
십일
십일월
비번
박호정
동그
다라
오랫
지속
만든
모름
##래요
반대
엄지
토요일
90
배우자
영원
하하
이익
복잡
엄마
당첨
조치
오랫동안
거치
나눠서
아입니다
나타
사회
신다구요
구동
재예
합니까
명칭
옛날
원치
절대
CD
충분
당연히
복구
령지
임의
는다면
정현
한해서
원화
나갔
23
작업
만요
채권
걸릴
들으시고
현대
갈아타
##달성
자면
유심
시기
구천
##tm
냐고
조심
어머니
##an
부채
열려
FA
라면은
07
보여서
##지만
상향
로페이
쇼핑몰
그래야
대조
예예
소득세
정종
##은정
강해
해피
일괄
노은정
예방
목표달성
기술
##저께
다라면
com
뮤직
네모
atm
구분
정진
잖아
정성껏
잔여
부가
져서
빨간
에이티
검지
에이티엠
예시
할라고
고액
비자
목돈
실려고
체할
원격
한글
현장
발행
새롭
수급
그만
종이
꺼져
이라던가
호수
특별
걱정
도용
##에스
아님
책상
정진희
수시
FAX
이슬
들어갈
pc
보인
전표
아닙니까
해놨
흐리
##확인
가로
올레
실질
원천
##므로
세로
반복
는다
비용
정정
수기
을까
뭔지
연속
수료
보장
택스
용도
대상자
형식
수준
재산세
02
달라지
익월
장명
가져가
##번에
한꺼
한꺼번에
##은행
자주
돌아가
머리
연계
옵션
엘지
보은
2020
라든가
인상
대부분
참여
나서
위쪽
여행
몰라요
세부
마스킹
통보
정종윤
던지
사무
명의인
엑스
여쭤본
IS
배경
확답
리뉴
##져서
계셨
##어버
다거나
상이
이때
인해
달성
거쳐야
선납
실래요
흐릿
친구
활성
을게요
자녀
단말
유월
건가
임시
굉장
한미
굉장히
굳이
각종
길래
애서
강화
재확인
미였
당겨
했잖아요
한미순
미경
돌려서
##릅니다
수익
계실
이순
##민정
주로
출금액
확실
이순화
빠지
붙여
류민정
시면
사랑
##ank
의미
보고
오피스
ISP
로서
모니
하락
모니터
오피스텔
진행할
영화
들어와서
전이
준다고
ㅎㅎ
기시
홀로그램
어저께
Ex
늘릴
##무리
마무리
그러신
바뀐
09
오호
잠김
도중
케네
희망
27
공문
채팅
2018
자기
부모
의료
표준
계셔야
입금액
##년자
시행
으려고
육만
아르
이곳
단말기
기울
토스
##ttp
는다는
일요일
http
재판
못해
날라
구입
무관
눈높
눈높이
01
작성
회차
특정
##바이트
아르바이트
권해
보여야
정승
##라미
##pay
벤트
편한
문명
거부
외국
여권
쪼금
일회
상실
엑셀
가시
기실
영어
개선
동그라미
사대
80
kb
통하
##US
정액
드렸었
초본
##USH
PUSH
보여질
세대
활동
모자
아버
공사
으므로
으셨을
이용실
나간
지우
180
##ar
아유
보관
제거
눌러요
kbank
가만
져요
다릅니다
응시
던가
향후
##소리
Npay
특수
떨어지
되돌
냐구요
국가
##겨서
그러니깐
군데
22
호텔
유료
##ow
##희정
나타나
어머님
어떡
항공
https
재판매
목소리
으라고
중복
지시
라요
나온다
걸까요
남편
민원
주명
##now
kbanknow
##거래
권한
행전
불러오
상여
된다고요
##자리
부산
##깐요
으신데
으셨다고
테이
피해자
유예
나라
주민세
70
띄워
네네네
아닌지
봐서
변지
##쳐서
전기세
얼리
직인
김현미
칠만
##케이
들어간
자동화
르면
배송지
배당
수당
26
제어
검찰
차등
하지만
피로
달러
모아
노력
와요
고생
아이콘
만족
지방세
##모션
프로모션
못했
나온다는
##패드
통화료
바꿔서
계산서
최신
들어온
물건
지워
환경
축소
##인지
기다려야
40
60
이따
셨었
홍성
제어판
박미
프린터
CV
우체
CVC
대주
임현
매입
걸린
버스
생일
환율
아닌데요
사원
영역
월이
새벽
할려면은
정하
우체국
숨기
지하
뜹니다
박성
추심
체일
려면은
스팸
대체
테이블
놔야
단독
충분히
##워서
정한
톱니
다시피
혹여
으셨다는
옮기
근로자
금지
일까요
키패드
##보기
왜냐면은
금방
##스트
이치
언니
이렇
줄어
구체
속하
데요
돋보기
현아
할지
정해진
박성민
찍혀
수도
예고
다양
요번
선생
해소
나갈
상기
여야
공동
국제
두드려서
검토
차원
넘어갔
에프
까진
아닌가
나온다고
누른
바쁘
원만히
차명
이용료
이라든가
목요일
지수
셔야죠
아닐
박애
##습니까
박애란
노트
사요
증가
분류
잖습니까
창구
바꿔야
간단히
옮겨
마세요
자산
보증
중개
단순히
없애
친절
법률
걸기
돌리
2017
조희정
싸인
부결
임현진
이중
내려보
성공
는가
결재
올릴
정윤
계약금
관계없이
상거래
gs
비슷
하하하
공구
찾아
그림
아무리
대구
연이
주유
안정
써서
##가치
부가가치
안심
29
살펴
영란
응모
으신다면
보너스
부가가치세
수행
미국
간혹
자분
래요
일공
갑니다
기간제
증상
정인지
어쩔
허용
형태
나이스
별로
기울여
사업장
##상환
500
일본
자마
채워
원칙
깔려
자마자
입장
일만
검정
조흥
산금
이틀
유한
래핑
통상
유경
아음
내려가
가끔
어둡
한두
계셔서
패스
구간
삼자
상관없
급한
아이고
##신가요
이사
IC
급료
일구
지월
잘려
오오
경기
와야
징수
으셨단
이루어
빨간색
자금액
꺼내
##AR
내년
체해
려고요
나신
송지아
구글
각도
##어나
그런지
가려져
##al
오랜
써도
무인
맞추
왔었
진행시
개념
어찌
됐었
잡히
예금자
##케이션
으려면
적요란
연소
상자
모른
교보
틀려
톡톡톡
대요
사정
만일
사장
LG
전세
으라
잔금
조기
28
원한
최혜
봐도
었잖
누가
주식회사
##리케이션
##플리케이션
고렇게
SA
주유기
65
바퀴
으로부터
그네
새해
영영
불구
셀카
별명
sm
최혜정
고장
전지
사라
시켰
현지
이래
장학
만드신
거리
녹취
탈회
자용
차지
실지
렌터
##IN
119
렌터카
정다
존재
쓸려고
PO
유에스
SAL
번거롭
SALAR
SALARY
쩜구
그러실
행의
##우스
통지서
면세
정부
유한회사
600
세전
마우스
연봉
건드려
얼만
2000
장소
정다은
사행
쩜오
부담
사무소
면세점
부재
08
개별
매장
물품
행해
바라보
걸려요
이야
일체
체계
##구비
아버님
연기
일일
아니오
뒤쪽
사모
여러분
쩜일
어플리케이션
직전
##ary
흔들
어여
넉넉
공간
불금
05
합자
인사
지인
백수
학생
네트
의한
##는데도
채우
sal
아들
치료
높이
salary
사망
bc
구제
잃어버
합명
합명회사
오히
오히려
도상환
열리
드신
마트
주부
증이
들어와야
장학금
두드리
에다
추첨
이야기
토큰
틀렸
야지
대리인
합자회사
##워크
홍성훈
게요
네트워크
잊어버
첨부
했는데도
##문고
sms
금시
교보문고
##소연
박미정
체도
잘리
다면요
통과
가셔
부정
스럽
하얀
회복
거쳐서
김소연
몰랐
에선
03
자율
더래도
물어
화살
삼선
헷갈
화살표
앞전
원인
사각
티몬
건수
##통장
구원
실수
소유
빠져나갔
인쇄
성년자
미성
열세
불안
우물
김선
진입
좌측
프리
지난번
관할
구두
훨씬
이따가
로운
달라서
언제든지
버려
##rs
음음
국민은행
5000
어려우신가요
행하
틀린
cv
한가
##니까요
아주
대포통장
사모님
고용
기내
작동
전국
공일
감안
아랫
김선정
어딨
매니
청약
관한
지정일
##군요
다행히
이라도
##워요
동이
45
범용
명함
세대주
일일이
동생
유무
페이스
내면
나옵니까
매니저
분명
##져야
확대
US
cvc
예외
어쩌
들려요
익스
엄청
미충
공이
으셨는데
인지세
가정
더블유
85
사무실
미성년자
알뜰
57
나온단
그이
인천
았었
평균
피디
알려준
별표
행사
연합
으셔야지
부재중
김혜
성인
재설
신청서
대표자
롯데
손상
카톡
매번
김혜진
박선희
채무
캐쉬
립식
연환
시간대
신경
명령
95
그런데요
연합회
교통비
할려는
외국환
마크
아이피
중고
3000
생긴
홍지
역시
##eb
카지
못한
기다릴
테스트
ars
당했
세여
드린다고
##다면은
##영석
조절
55
어지
카지노
전지애
식음
120
캡쳐
원할
져야
33
세이
식음료
마감
도박
04
쳐서
에이치
을려면
유공
놔두
상태기
무선
비트
여자
그리구
홍지선
글쎄
연구비
오천
의사
냐면은
900
행운
올렸
##으면
힘들
쩜사
두건
##레이드
출국
라는데
열기
한편
66
Web
묶여
##으니
복지
시킬
합쳐서
업그
업그레이드
수표
뒷자리
손해
수입
라네
##하면
명목
으니깐요
멈추
스케
지한
버드
##INT
금이
어려움
유공자
타사
스케줄
해드려야
서명
음악
공장
다니깐요
병원
손영석
돌려받
무직
두들겨서
빈번
는대
POINT
여도
수시로
이이
뒤집
어떨
세후
주변
해야죠
마통
선보
케뱅
지난주
프리랜
보상
그렇다면은
돌려드릴
박은
서부터
##il
직통
프리랜서
전유
지니
으셨기
06
특성
줄어들
해봐도
볼려
전유리
드릴려구요
본사
왜냐하면
박은미
##10
지하철
세액
신단
팀장
갤럭
갤럭시
일차
체수
운용
정식
단축
계실까
날씨
선정
요렇게
매주
다는데
제가
파이
아마도
날라오
보험금
아무런
미래
정자
표지
보낼려고
안쪽
라인
소원
##pt
직업
개시
그분
을려
원한다면
개수
고는
심하
휴사
마저
구조
모레
셔요
충정
##er
##도록
광고
누락
어딘
체제
##워드
누군
지숙
진심
명의자
선보일
예이
그런가
명원
마치
되도록
##합니다
최소한
번만
벌써
지난달
씨티
들어올
대리점
다른데요
캐릭
조사
##주시
캐릭터
고거
화요일
벤더
이라고
점심
##OR
돼야지
그면
##88
한다거나
바꼈
받으
두들기
수요일
결국
끊기
opt
걸려서
세이프
명시
들립니다
분과
신지요
송금인
뭡니까
심해서
로다가
납입금
기부
과거
등재
동해
조합
박현
파트
그러나
까먹
만료일
지후
35
시장
하이
박현오
끝나
당하
요런
끊겨서
오르
기에
장만
출신
확률
이용중
체네
세무
너스
사오
소송
수동
파악
자연
앞자리
감기
위험
전날
준다는
앞쪽
차액
##ㅠㅠ
인후
가려져서
연간
공통
요것
고용주
박명
볼라고
수집
답답
부가세
명과
산상
지가
올랐
계신다면
나온다구요
도금
여신
자랑
우와
벌금
기회
비치
건물
아버지
행은
변화
문서
으려
피하
워낙
끝난
냐고요
상호
가려서
그만큼
숨김
##ail
쌓이
동그란
돌아오
CB
급분
분리
건지요
37
께요
단지
반려
으로서
넘어간
습니당
운동
이분
치가
으면서
보여져야
그럴까요
유선문
이루어지
##으나
미제
장기간
바깥
된다거나
오에스
와이프
도금액
으론
로그인한
차례
체결
할까
##는지
공무
광주
그러게
윗면
바람
패스워드
박명선
중계
2021
불빛
##회원
된다면은
32
재문
의견
증표
던가요
종목
부득
관리자
가르
비회원
한쪽
구사
매매
못해서
적립금
바꿀려고
뿌옇
전면
소진
줘요
바꾼
지사
##코드
막혀
이용자
OOOOOO
흐려서
각별
대답
수월
유출
상당
만나
찍히
차량
그러고
고시
이용한
풀린
주가
응당
공무원
하긴
##시오
경기도
세용
월일
이니
##십시오
바코드
주문
매년
강제
회생
##DD
조명
합니다만
도요
지도
##드렸
저렴
아빠
는군요
요율
중국
어떠세요
부득이
빌려
그래야지
걸렸
거주자
써요
준다
##in
생명
종신
크롬
해드려요
남자
봅니다
당첨자
SK
마스터
시켜야
특별히
스러
색깔
대하
김평
김평중
오공
잡혀
##플로
버린
잠금
익스플로
익스플로러
디기
분명히
헤헤
1588
아랫면
ID
려니
아쉽
노트북
생겨서
내드렸
승진
해드릴
근접
관공
그나
주요
디스
내야
신한은행
찾아가
할려니까
해집니다
써져
생길
스로
매도
어두워서
저금
보호법
빠져나간
도내
연휴
바빠
이뤄
환시
하루치
EDD
려지
공개
끊겼
시선
##세스
차이점
상세히
비율
체류
점내
결론
아무튼
느냐
취급
KG
니당
아시
파란
미현
생겼
김정
##갑니다
세팅
프로세스
원이
복원
추운
일까
살펴보
금분
선착
아야지
냐는
내장
##레임
고침
금감
이달
창민
선착순
세무서
월별
mail
연선
저기요
으라는
근처
아인
파인
금감원
세계
추정
김효
용제
축하
75
범죄
그니깐
##절기
동의서
이미지
될까
환절기
##어도
멈췄
빈도
김효주
원증
스크
아우
이용대
금선
바뀔
아만
기다렸
예정일
꾸준
들어와요
나누
책임
걸릴까요
사설
비씨카드사
미자
양식
겸용
시킨
책정
각별히
기초
사라지
분증
##라리
차라리
업로드
들렸
반응
깜빡
라던
전해
##주시면
연회
당사
을지
걸린다고
글쎄요
세션
나온다면
한다면은
래는
현대차
연회비
봐주시면
에에
든가
충돌
내려서
부기
다던가
닷컴
##운트
고민
확실히
잊어버렸
대형
맡기
미비
##44
으셨고
그림자
출문
당한
알람
는가요
한하
으신다고
검사
위원
이득
체금
고마
영신
빠졌
##rl
53
유학
고려
움직여
발표
오빠
버려서
누군가
불능
으셨는지
##78
서면
지침
##시간
소비
가로줄
위원회
동화
주주
불이
징역
숙박
만네
2010
최성
려니까
지웠
무방
MS
라구
34
적합
포기
다이
이라던지
가실
비앤
프레임
##음음
비앤비
url
사합
경남
홍채
띄우
무시
##보험
서버
제조
일회성
무리
신가
육안
기분
취업
상당히
흔들리
출근
치식
소유자
마켓
어려운데
행정
ch
아네
가급
이란
가급적
놔서
지는
파란색
상계
최대한도
##99
38
그지
보인단
최성재
당해
대충
보였
##봐야
백승곤
기입
의무
##or
이페이
##려구
권장
그동안
박미선
오랜만
넘어갈
IP
부합
형광
곱하
감면
유비
##구나
##me
56
도대
재무
골뱅
흐린
일부분
골뱅이
##11
내방
장점
충정로
반가
송사
##처리
RF
다네
동사
##30
메쎄
감상
만이
자명
장착
스피커폰
행이
세워
일어나
용중
최선
알선
지켜
가까우
경험
이기
날인
신속
월수
평소
영자
드셨
백미
88
는구나
##그만
올라갈
껴서
자영
##라서
주십시오
으셨으면
요기
보인다는
다니까요
누를
별다
비료
달라집니다
나눠져
##피탈
시험
축협
문장
ic
줄이
오이
온다는
나와도
자는
지불
요청서
어떨까
볼륨
귀찮
분하
팔공
150
환자
볼까
계신다고
##사람
수사
제목
세상
캐피탈
자영업
아실
성심
수치
고마워요
김재
중소
보인다
켜져
##라는
는데도
발금
##나요
권유
규정
네여
##대요
등본
가르쳐
저금통
하드
ㅡㅡ
가게
구형
설명서
디스크
로써
조작
집사람
자동화기
##문자
볼려면
틀려서
했어요
안녕히
소비자
한참
온다
계십니다
그날
높일
퇴사
올라간
가치
뭔데요
이광
입원
으니깐
달리
대량
따님
유형
선불
700
더불
선호
무제
보유자
제조사
ㅋㅋ
번지
중순
51
지갑
팝카드
아무것
예에
위나
학교
곤란
두세
해드려서
미설
여쭈
오타
제주
##nt
제게
주실
피이
늘려
쪼끔
민주
김재민
조그만
솔직
가져와
그까
옮길
##아가
신랑
지하실
별다른
가신
만지
밖엔
비해서
이광현
납니다
넘겨
QR
여서요
음식
##머니
올라오
등등
쿠팡
##50
400
거요
힘드
리스트
일종
##36
기호
순간
기준일
적어도
점수
##기업
구속
성심껏
아세요
일상
제기
고기
기해
아지
휴가
리가
주관
비추
이아
미설치
오회
생겨
십쇼
##화점
알려줘
고런
당신
드실
부위
휴직
정보원
백화점
인서
보증금
인간
청구서
48
사용자
떨어져
심한
구성
실까
영장
출아
하여
##60
꼼꼼
독립
풀려
상의
##바퀴
번달
물어볼
내가
연체금
마음대로
톱니바퀴
제이
가격
##고리
시오
요란
자라
행공
배달
스타
##20
부당
##ard
보인다고
줄어드
들려서
소멸
체요
어딘지
중소기업
Paybooc
겹쳐
점포
계신데요
솔직히
대단
특히
걸린다
놔도
##지영
가량
한다던가
김시
은지
##90
시켜서
##sh
잃어버려
금은
카테
혼동
도해
LMS
브라
##서요
인지요
구좌
으신다
ㅠㅠㅠ
청건
카테고리
맞출
속이
뭐요
광역
한정
환차
붙이
영위
오케이
퇴근
환전
엔비
테크
반가워요
빌리
줄여
환수
##무소
개업
법무
불러봐
계설
김화
설계
영명
이관
화재
더라도요
xs
##40
하여튼
##예요
소정
당기
벗어나
불량
창원
체신
코리
거래소
CMS
##하나
꾸준히
계신데
미납금
김시현
모델
불이익
거예요
걸쳐서
수납
##라도
기울여서
가려진
반대쪽
얼른
탁자
동사무소
외화
회신
보여졌
3778
##보험공
4000
달치
육사
은가요
간주
양쪽
불법
사공
##82
구이
옵니다
후유
그렇지만
떨어졌
국적
이직
재해
가셔야
잠기
개통
기일
하향
##계약
종로
하나하나
47
바르
상해
재전
##보드
이행
##card
고것
집니까
재전송
놨던
대가
품질
너무나
화상
되돌아가
체의
내려도
간다는
로우
##IB
##걸로
한다구요
날라왔
대단히
뉴스
대중
도장
입후
나왔었
건의
결세
도라
씨방
줘서
##보험공단
평점
건강보험공단
외국인
건도
꺼지
이대로
전신
합해서
KOR
소프트
구구
까다
남겨서
##IBOR
##이스
공용
멈춘
KORIBOR
공고
정수
##로지
할라구요
아고
열심
후유증
입하
진다면
가여
절대로
신다고요
붙여서
열심히
재처리
키보드
로딩
해라
##80
74
비활
##My
비활성
Xl
실비
영선
청이
##CB
상환금
정기준
XlMy
나을
잘라서
컨설
공삼
고엽
김지영
떄문
수원
용안
모른다면
빠진
게임
내지
끊겨
바뀝
분경
네모난
바뀝니다
지를
진단
행위
적혀져
로밍
비빌
개발
끊긴
박수
체했
역할
나지
무작
광역시
걸립니다
볼라
서라는
온다고
전반
더라구
간다
무릎
여태
혼자
윈도
얼만가
헷갈릴
돼도
드립
정오
파기
고엽제
으네
조만
##턴트
전년
출입
끼리
렌즈
개국
누계
다른가요
변형
이젠
##es
걸어
드라
미승
박희정
드린다
부상
연관
원합니다
판결
봐야지
알아봐
노후
경찰관
수퍼
애플
체이
kr
일가
떄문에
보도
옮겼
용지
차주
코로
99
시경
저절
체인
##sa
으신가
명이
지이
월사
피시
컨설턴트
저절로
아프
시월
측정
아웃
인포
제품
사시
속도
조만간
가진
아이오
구속력
##금고
수도세
김한
엔지
##ne
비스듬
2008
마을금고
환급금
일인
##셔야
깨져
였을
##ig
느낌
비중
김정희
을시
이만
알아들
규시
하신
권리
800
당해서
사인
체라
실외
160
질병
지장
할라면
대전
비나
소건
이천
알아볼
##계약서
73
KCB
염려
근로계약서
김한울
그기
딱히
여분
티머니
가주
넘버
매수
번짐
하얗
##바로
윈도우
사면
지네
출력물
010
무제한
행계
서울시
na
당건
약건
재출
좌수
커피
##as
250
다달
힘든
으로써
대여
보니
##버렸
인공
언제나
OS
제약
해봐야
보정
부대
처해
테크놀
늘어나
부상자
예예예
검찰청
내이
의뢰
해졌
셔야지만
래도
세워서
착신
패드
협의
에서부터
만드셨
전후
맨날
선행
보여진
넘기
으신다는
요금제
시한
재단
카운트
통신망
맡겨
타워
무작위
##ign
유엔
진다
나간다는
94
정미
홈피
진다는
##던데
##옵니다
마이나
등기부
추세
으신지
1544
테크놀로지
그을
놨었
무한
유가
안내문
가만히
월로
취하
분쟁
하인
해킹
기억나
코로나
82
부업
재시
##으로
##교통
올려야
남겨져
##납니다
마이나스
다던지
vi
난다고
당황
언젠
SKT
라니까
사로
출연
행인
향상
계신다
가려질
고속
급자
케이스
브라우
근거
기형
려구
정신
회수
멈춰서
거주지
그나마
오라
##나다
된대요
소개
이슈
나갑니다
동산
브라우저
챙겨
처해질
외환
라기
싸이트
강하
나쁘
달일
일주
패턴
봤었
파리
계신지
본다고
어는
한계
##웨어
안녕하
나타날
대중교통
명절
행가
##지능
보내기
명확히
잃어버려서
인공지능
정미선
입사
그저
없앨
찍혀서
옮겨야
시킬려고
어용
여긴
의거
착각
몰라도
장인
증정
현성
복사본
의심
도대체
로고
품목
##96
##습니다
대출계
그저께
다요
##ICE
음음음음
나으
챙기
##입니까
사일
씨요
한다고요
ww
선물
이탈
거래제
아이씨
출입국
NICE
틀릴
활수
POP
풀린다고
열흘
제로
평생
어떤지
##제표
재무제표
CA
모임
편입
환차손
www
블랙
좌당
하로
is
미칠
보시
사후
소속
포털
단체
시이
일찍
하세
미술
##ush
물어봐
##365
했으나
지우기
후후
##이자
24365
비춰서
기부금
덕분
택배
46
강지
뜬다
송이
합계
수협
점점
호환
##on
그건데
소득세법
흔들려서
나으실
미화
민영
주거
내외
피도
##BK
액수
공시
미사
##ou
종류별
박수진
실려
인감
##브리
52
##ab
어떠신가요
기이
라라고
독촉
연일
하이브리
하이브리드
송출
영업시간
시세
썼었
이면
당겨서
버려요
로우실
정수리
##le
잊어버리
프렌
관해서
업소
출전
회색
##터리
사칭
어고
김양하
소프트웨어
한단
헷갈리
코자
올라갔
모른다고
발음
일전
특이
##AY
옮겨서
주시
안내도
검색창
연령
거래일
배터리
증자
행도
##수록
만드실
무직자
강원
보답
언급
이시
지지
채권자
3210
교환
감정
유진
준영
이상시
시계
커서
티비
이경
##세대
애기
예스
조차
배당금
모른다
놓치
바게
제하
주인
집행
바게트
아가
응대
전한
나름
매시
지경
특기
세탁
카페
아이비
이래서
공기
레딧
문화
소용
떨어진
제작
일회용
내선
서경
눌른
마그
블로
미달
사례
위반
인시
십니까요
급해
영국
이공
체내
내요
디바
렇게
##IM
지키
일시금
##70
110
ㅠㅠㅠㅠ
디바이스
AP
산업
예여
증후
자면은
는대요
다세대
달려
서상
한화
허위
그려
캐나다
visa
교육
외우
전담
진다고
##어난
스캔
택하
##FF
isp
구하
관공서
공항
무이자
오사
이모
청장
텔레
학비
마그네
순수
약물
김철
재차
바꿔도
고유
금상
담배
라거나
열람
보인다면
겹쳐서
휴면
부동산세
##RP
블로그
초록
신용거래
일시불
아닐까요
스크롤
들어온다는
김철웅
영이
##심사
1500
아랫단
기다릴게요
이뤄지
이아영
몇일
아냐
들어갈게요
OFF
짤리
bccard
용량
자신
주년
76
구공
금호
막히
재심사
LGU
더군요
세븐
집어
미수
읍니다
##72
44
괄호
IRP
공부
도일
59
고금리
장시간
저점
컨셉
코너
했으니
건만
셋째
였으나
오해
종결
다든지
풀렸
함희
인사이드
멈춤
합쳐
엊그
으음
잇돌
저렇게
후기
강지웅
공식
미상환
나간다고
58
소린
저금리
나타납니다
방안
었었
제삼
제삼자
규격
납세
다녀
동부
보입니까
어때
절사
파손
가려졌
결합
빠를
채웠
1600
##ass
정숙
초반
39
더욱
까다롭
프렌즈
언어
을라
보여져서
드린다는
립도
빌딩
##부분
낼려고
눌려
든데
으세
맞춰질
갈아탈
위로
이윤
##전히
1200
고대로
비과
잃어버렸
USIM
비과세
네게
답니다
숙여
이마트
##카운트
##대문
140
뚜렷
보완
오구
오송
으려는
보류
어카운트
임금
칠공
##반기
APP
경품
제발
일부러
예치금
아인데
아드
입건
##op
Tab
##AN
다는데요
급액
김수
라며
신협
환일
##77
그랬었
명부
아셔야
애매
짤려
출도
연이율
펼쳐
평상
##페인
고개
사과
쌓여
치일
##이체
들어온다고
용이
태그
MY
감소
나용
단어
손님
가져와서
Pass
걸쳐
라면요
비자카드
명인
필요시
##ord
따지
악용
웅장
##15
에이에스
사라졌
음음음음음
박상
지나가
코리아
42
됐으니
언론
가까워
이파
통장이
하하하하
어딘가
스러우
넷째
예매
우려
##증권
##힙니다
동장
사단
상식
이용정
했었어요
평상시
One
달달
가져올
##INQ
상한
이목
종종
##word
바쁜
인도
현제
##MC
Time
도서
유성
지에스
들어야
##BKINQ
이목구비
급히
복리
브이
신순
토대
##이팅
##ce
돌아와
이루어집니다
집어넣
Password
동하
쓰여
조성
##it
49
김영
변조
찍힌
틀려요
텔레콤
54
으러
아무거
올라와
기다릴까요
CAP
직영
된다니까요
연체료
디귿
슬러
여전히
절반
협조
래서
임대차
는다구요
모자라
걸어야
갖춘
피일
해진
사실상
상공
완성
##de
계열
그서
재정
포로
2500
어우
질권
위임
유통
전제
찾아보
까만
매우
시게
저쩌
체중
프론
홍길
올바른
늦춰
##케팅
계셔도
다달이
가이드
금식
마케팅
올린
통원
240
인출금
경찰청
누군지
당기관
go
끝났
유상
토탈
어려우므로
64
동명
모집
슬러시
홍길동
내시
카드기
느라고
소재
씁니다
이타
호주
맞춰져
126
나올까요
그만두
뜬다고
물가
소문자
얘긴
일천
지해
통틀
폴더
화이팅
ㅠㅜ
예지
짜증
##19
플로어
과시
나면
동작
모를
불만
종일
못할
이오
가져다
PBKINQ
lt
ㅇㅇ
동영
정금
네기
설시
어가
잠겨
IN
급해서
똑바로
랜덤
여실
위주
2982
바빠서
Push
기상
박선
서대문
위함
##at
다네요
pop
떠야
용한
더라면
든든
라니깐
아여
출장
##성희
##티콘
##ver
궁금증
이모티콘
난다
밀리
대안
비싸
식사
여건
우량
이로
취해
신용대
강남
답장
여행자
들어간다고
정윤아
뭔데
어이
##더라
##따로
월급날
알려줘야
늦출
려다가
암튼
다니까
라니
우시
그러므로
라면서
270
1605
식당
저게
naver
전신환
그라
내밀
리아
쓸려구
건건
놨기
이리
전윤
통화량
따로따로
그럴려면
330
워낙에
기도
느라
다구
신원
올게요
라네요
경자
로움
매칭
미안
달라져
떨어져서
거꾸
분도
상급
않되
진이
내려갔
196
들어간다
스크린
시편
알리
잡힙니다
지출
중도금
줄어든
꼼꼼히
금실
김동
요일
총액
한다든지
경태
보단
거꾸로
건설
올크
하도
랍니다
일로
찍혔
아기
에헤
진자
내려갈
나올지
드라구요
62
내고
법령
성격
위탁
서대문구
구정
눌리
몰르
올려놓
영문자
멀리서
간략
재검
행과
삼성증권
항공사
##ing
맞춤
사사
저어
에헤헤
군대
대분
밀려
샐러
저걸로
참조
##gk
불러올
사이버
상여금
USD
글로
서여
피드
피드백
43
노성희
될려면
##51
##해요
3496
대분류
OP
고운
급정지
재자
##mp
써야지
남부
분이
선상
안하
오백
편비
##pp
360
정차
오를
혼란
아드님
재검증
금년
자판
자본
따라가
2005
비스듬히
디디
불리
셀로
쩜쩜
계신다는
법무부
대행
밀린
삼백
요새
정해서
어려우나
쩜쩜쩜
일오
장시
NH
구청
빌라
줄일
설계사
풀릴
맞춰야
정말로
2009
채무자
군인
금가
남긴
##민국
대한민국
우리은행
나타난
들어온다
구현
일용
장난
한다던지
가구
분홍
티티
바깥쪽
내내
정선
##12
작년도
이니텍
Tgk
Zx
제안
좌이
코인
하구
TgkT
게좌
방침
셔갖
정밀
정지나
가르켜
셔갖고
Yes
느끼
연달
유자
육아
재밌
들으셨
으라고요
상급자
건으로
김준
어휴
입문
현자
##PAY
##하기
벌금형
구비
원복
을께요
인기
전경
접근
##re
올라서
ㅎㅎㅎ
파이낸
구여
단점
라이
인편
130
찾아봐도
얼만큼
보인다구요
미소
부부
##렉트
주소창
TO
나우
사안
월구
창가
요구불
089
67
구축
출구
SS
간다고
정할
넉넉히
기점
배정
비해
위에
지서
홍콩
이건가요
일용직
63
cd
보름
시라
##FE
된다던가
헷갈려
ㅋㅋㅋ
기로
기자
영구
김현수
할라니까
공란
메신
송시
실재
정이
청소
어떻하
나간다
라던데
pay
걸요
난다는
디지
임신
잉크
커다
고선
나시
드셔
방해
쓰시
원상
으흠
지영
해택
##ax
아닐까
넘어간다고
풀려요
분홍색
TV
더하기
사나
저런
달라진
86
변하
분기
사신
승용
양수
여쭐
펀드
송금수
고점
다산
편할
습니까요
흔들림
메신저
바램
울려서
대출원
98
대우
서에
쉬운
제요
해준
##리아
다가오
내려오
돼버렸
전북
채워서
학자
##네요
이용제
들어서
파이낸셜
커다랗
고르
대문자
탐지
다면서
내려다
할라고요
911
들여
실소
씨비
흥원
낮출
능력
여름
모른다는
복수
손실
원도
자가
행시
한도액
괜히
드림
적당
주면
##13
##지급
##저것
##ISAFE
이것저것
판결문
광범
빨갛
출하
##24
떨어질
아가씨
TOP
나무
용인
코리보
OPT
광범위
ex
연경
원분
플라
다른데
할려다
계약자
디지털
부러
재부
줄게요
내년도
스러운
동영상
id
금자
소관
쓸려면
아휴
##ic
##단위
##플레이
할라는
어떠십니까
4030
디스플레이
김진
내점
사셨
유도
이티
핑크
해복
들어갈려고
96
그치
니가
온전
##명부
##결제
약정금
INISAFE
등지
라우
줄려고
카카오톡
들으신
막상
용건
울산
자고
청전
햇살
주주명부
ㅏㄷ
상장
수출
신상
알파
원정
조석
지랑
출발
##듭니다
끼쳐
내렸
버릴
산하
이용권
보낼까
채워야
sk
간호
기후
깨져서
분만
아녀
탐색
##TV
규모
시요
유념
통행
학원
##패스
하이패스
음식점
만원
미확인
밝혀
셨으니
이억
티켓
##74
##df
대학생
199
모아서
습네
영점
##쨋든
영업소
걸린다는
헷갈려서
언젠가
금도
김도
깁니다
돌릴
라아
어쨋든
올까요
캡처
350
법무사
라니깐요
ㆍ이체
꺼도
도가
성원
실효
예서
인자
취득
풀린다는
9111
amp
도만
신호
##500
들어도
2002
갈려고
늘렸
미포
벅스
용권
##으며
오토
으려구요
팅후
더니만
건건이
경영
드세요
래나
비로
아저
해두
##하루
얼만데요
놔둬
지자
합병
##은색
72
까맣
부턴
##FP
##스크
메모지
학자금
라우팅
기금
낭비
동료
됫는데
뜬다는
시는
질환
##니더
신문
행용
이용해
불가피
아하하
얼만지
KPAY
장이
##ion
9472
아저씨
고고
동정
멜론
숨겨
야죠
정시
타이
해본
##ro
찾아봐
도액
반면
발견
비싼
수가
인수
##으니까
EX
pdf
경제
고쳐
구직
비행
캠페인
##소문
##en
##CC
하루하루
걸려온
막힌
번가
인원
자제
재신
##저히
올려도
68
세목
애초
을라고
일고
라도요
바꿔요
일주일
79
서소문
정원
지면
창문
안내서
으셨었
완료시
아인가
모시
못합니다
방패
주위
천불
##CM
그럴게요
가져와야
다리
뭘까요
신세
일선
진영
황당
드릴까
사이오
가려집니다
승현
예인
옮긴
육구
##커스
20160
강동
검은색
느려
담대
여윳
지고
학습
##거리
은행가
여윳돈
구별
독일
변색
예기
조은
체카
포항
##mb
##버스
가까울
막혔
사지
체거
##66
##해야
410
on
낮추
순환
시청
어린
포커스
형성
홍보
흐름
##ran
##에도
아이템
끼쳐드려
경이
쓰리
전방
쩜칠
체등
치아
현광
기월
내게
다던데
없음
임차
2007
고장나
음음음
권리증
WFP
귀금
에라
에티
오시
완벽
쿠페
특약
희자
특별법
귀금속
고렇
다기
변환
공유기
비행기
본다
생체
알바
오에
우린
증도
카트
탈의
하한
에티켓
OR
of
대소
서용
공무원증
불량자
사일구
고소
광명
나빠
동네
중인
청해
체불
케이지
보여도
2006
지워진
지워져
ㅜㅠ
가슴
골절
급할
날아
인물
파산
피부
##태현
올라간다고
망가
본다는
비례
원단위
참가
##TE
##Sign
수신기
체해요
ON
숨긴
잡혔
찾기
흐려
할려다가
여서는
그은
깨끗
모리
아라
아트
줄래요
##아이
얼만데
ip
마는
마이너
수익금
테이프
스크롤바
청소년
공급
당국
도달
물러
변호
시고
아깝
월단
지번
헨드
신세계
들릴
메리
안양
으셧
##시다
095
건드려서
41
8000
거지
소식
소후
실내
쌓인
정중
##대기
사용법
내려간
20000
보고서
아닌지요
불이행
과장
백이
성남
시다
앞뒤
으십
재미
출자
한시
왔었어요
위임장
금자동
객관
공교
달째
바까
비게
유동
자식
잡힐
주영
지형
확보
##이션
입니다만
드린다면
삼성카드
관계없
상속인
가셔도
물어본
가을
급기
도구
도저히
떠나
해보
##34
##ID
들어옵니다
으라는데
다이얼
까다로
KB
금전
나셔
배포
삼공
소만
씨네
저저
토니
하시
한결
충정로역
기때
세우
오원
일지
전호
주지
해가
아이패드
긍까
사양
용하
빠져서
280
어때요
김동환
SSG
각자
국번
깨지
만어
민자
저도
직구
지급액
다며
워크
원가
재외
푸쉬
피인
##상실
##75
##ve
판매점
자격상실
가져왔
원한다는
다이소
게시
궁굼
내로
됩니
시대
아항
용일
쳐도
큰일
반대편
간격
내비
달력
센타
제께
증거
바뀐다
원한다
틀린데
단리
일어
조항
추출
화질
##현주
위해선
이래야
거이
놨다
놨다가
말경
스나
와중
칠사
케이블
게라도
구서
급격
기요
떠가
먹통
받아
불로
성경
직불
태어난
퇴원
표현
##42
2004
돌아갔
##CMMC
공짜
승자
여성
용자
현경
##ct
사용료
자료실
구로
껍니다
봣는데
신비
월정
절로
증과
피티
##NE
바꿀려면
잊어버려
수입원
고속도
달라져요
김용
비워
스물
쓸려
은어
인대
자요
조진
종금
환가
##산시
al
누려
요소
한건
거래량
어야죠
당첨금
라던가요
규제
뿐이
아십니까
잔데
증지
##ra
당사자
VAN
당할
송장
습득
썻는데
였잖
유일
전입
지체
태블
##거든
안내대
특별시
준다는데
느낌표
엊그저께
태블릿
기연
난금
놔봐
모으
서기
에여
인적
저쪽
##lle
습니더
넘어간다는
5151
없앨려고
기인
꺼졌
느껴
마쳤
상반기
신기
오미
요망
운행
이포
정훈
청주
쿠키
멈춰져
WCMMC
in
담시
미처
반경
서식
수니
연연
올라왔
할라니깐
보낸다는
87
kg
다치
때로
안함
에로
작용
적수
전주
천장
##더니
줄여서
##lleh
물량
변제
빠질
상가
크기
지워져서
구미
라뇨
사하
신뢰
웬만
유로
이연
잠긴
주세
지라
아마존
두상
로드
보수
원룸
이원
읽혀
자아
##ON
FACE
엊그제
알파벳
받아들
경비
금하
백한
영사
음주
적인
전력
지예
회시
##100
할려구
건너
곧바로
구영
땡땡
언더
였음
추려서
큽니다
근데도
일반인
동그랗
bank
동자
미지급
성현
스무
완제
원장
첫날
##시면
##정보
##ㅜㅜ
##OA
사업체
popcard
납기
사육
승계
어짜
이케
정우
출고
취할
그럼에도
금융채
알아듣
보낸다
잃어버린
강원도
899
간소
김태현
내기
등장
분성
용역
이마
자필
해줘
##모레
어짜피
92
부천
선결
송신
잠겼
정권
최상
회의
##dd
경상
고어
발부
서랑
시가
어덯
증대
쳐져
해용
급취
미루
민호
운송
이백
인네
임재
지세
폐지
##16
##BA
##랑스
들으시면
어찌하
사라져
어쩌구
유학생
##ment
qr
구부
따르
스톱
실천
약하
##요금
##ag
##0000
라면서요
돌아간
정중앙
개입
라상
빠릅니다
키움
##개인
이어지
올라온
안타까
기울이
##art
김준연
드셔서
김도현
SP
th
겹치
급전
나왓
립니
박용
전철
피자
허허
##ft
1577
가져갈
고걸로
금과
복직
아름
전번
정인
지와
아무데
못한다고
세무사
다이렉트
name
8997
개개인
그구
난감
도인
려다
호로
##레스
줘야지
항공권
들으셨나
DCC
갈까요
대만
마친
빠리
사도
은가
정각
정렬
한동안
된다든지
강경
기아
날자
리크
심야
엔젤
오가
원해요
임용
했어
확장
달라도
날라온
1802
너그
는디
예어
유럽
인아
인형
저것
합의
혈압
환매
##86
##라든가
추천인
초록색
##더라구요
샐러드
검진
급상
껴요
느리
미뤄
민감
셔셔
소분
액구
저걸
##게이션
풀린다
내비게이션
거짓
데여
만한
밴드
본상
여시
오셔
이랬
짜이
하지
##ms
##린다
된다니까
늘려야
워크아웃
엔젤리
꺼라
된데요
모릅니다
번이
빈다
이영
일향
전전
타임
##cc
올라고
틀려질
kc
sp
금만
됫다고
리요
마땅
민정
시각
아모레
언짢
연세
자린
장담
주중
진주
##LNE
해야겠
못해요
바쁜데
들여와
align
77
깝게
박종
저렇
처분
환하
희미
이러실
감후
과다
다아
송부
아일
퍼시
##IF
##CH
##바이
거래법
다행이
이루어져야
해준다
통행료
off
결혼
공연
라지
송원
오신
융통
주사
청각
##st
##브로
공공요금
와이브로
겹쳐져
더라구여
퍼시픽
App
기만
부착
선가
자일
하반기
##는데요
1100
된다면서요
꺼야
나아요
랜드
반납
블루
하위
##po
##란드
신고자
확정시
갈게요
끊어
매스
무소
뭐야
부르
브로드
숙소
시티
우에
지날
2011
진짜로
떨어뜨
매스컴
놧는데
물리
소명
순위
어진
어만
여지
일영
재짜
재작
지주
화장
##정원
##EX
##쪼록
안내장
제출안
들으시는
김진형
깝게도
감시
그대
만점
아동
아내
조취
지구
지어
피네
혼합
##의자
##투스
아니야
되돌려
지워졌
이치이
SW
세지
수록
심해
아어
적힌
지분
하이트
##법인
##플러스
신청자
243
후불제
선명도
172
정산용
나와야지
부정사
원할하
IPTV
edd
공모
단종
민경
배팅
스트
시즌
일간
점명
한전
빠져요
소액결제
는다거나
이루어져
거친
관해
긴데
김미
낮춰
빌린
영통
자시
짜로
추적
##35
된다던데
지하철역
OOOOOOO
69
가드
실려구
증면
항속
홈플러스
##동자
지나간
대학교
강해졌
특정인
강현주
급신
남겼
라니까요
신설
주차
##OM
바뀐다고
살펴봤
무지
박인
세모
인과
자네
철자
힘듭니다
##out
##mber
재작년
MOA
us
네만
뺄려고
101
대구은행
놔두시면
그려져
SC
무상
성민
애플리케이션
절전
정돈
체아
토록
피의자
햄버
##umber
##감정원
170
한국감정원
주유소
원한다고
언젠지
##IFT
SWIFT
햄버거
금천
길래요
나쁜
내래
윗부분
잔존
지기
별도로
상대편
임대료
195
찍혀요
소재지
블루투스
경향
꼬박
내릴
법정
설립
수증
시네
쓸라고
집중
타발
하네
##ace
넘어갑니다
파이브
재단법인
가볍
다닐
주이
편집
효과
##76
##저기
아이구
수술비
바뀐다는
el
★★
남성
명자
반짝
시리
예측
일사
쳐야
출로
눌러도
맞춰졌
걸어서
플라스
84
계장
꼐서
나고
납일
내분
눈썹
두가
로선
문경
미인
빌려서
시지
외식
월불
재고
종가
준다면
초고
코스
여기저기
넘어서
1800
올라갑니다
누나
성자
원대
적극
하해
해재
##어지
##러리
##OS
10000
불러와
들으실
장애인
드라이
오토바이
끼쳐드려서
건들
금담
꺼진
노란
눈동자
모여
박민
서부
승낙
아셨
안주
없앴
윤재
일교
중심
후에
히히
영업자
세대원
소린지
김용성
플라스틱
일교차
PAY
게여
동호
로봇
마침
제명
측면
신용상
들어간다는
알려준다고
아네요
볼려면은
김수민
전전월
떨어뜨려
가네
건보
김성
나아
다려
미발
박태
비이
실업
잡힌
정어
제트
피보험
한마
열려요
였음을
개편
금주
낼까요
뉴질
맥북
본부
사점
생계
수리
어른
자치
종자
쩜팔
커지
표출
하아
##73
거래처
대해선
아아아
근무지
대주주
뉴질랜드
낼게요
봐드릴까요
비고
빨라
사백
실직
씨이
으십시오
폐업
##카락
##뱅킹
이용하
198
한달전
머리카락
소린가
한마디
감지
권고
끝판
동구
삽입
수십
스위
자나
졌어요
출가
##인데
날라와
모자란
어딘가요
관세
국고
금어
네라
닫혀
됫어요
베이
베트
실은
프랑스
문제점
니깐은
바꿀려구
이경우
어린이
박인희
가득
거대
고양
김형
김희
다로
색이
손쉽
실정
알맞
외이
전등
포스
효성
##전화
현금화
번거로워서
라니요
##outing
피보험자
경북
그룹
근까
기미
도도
리스크
마디
볼께
서라든가
스텝
아울
정규
판정
할땐
##ㅡㅡ
기다려도
문제없
열려져
0219
89
갑니까
결산
루팅
미희
본데요
부활
세리
아디
알고
이른
정비
조용
진정
캐이
현실
##북도
여야만
450
베트남
Fx
가라
검수
고로
고만
공원
물질
분내
아십니다
영일
오아
저이
정명
지성
한대
현심
##ㅇㅇ
달라져서
된다면요
##ine
이경로
지자체
sn
골라서
능하
다거
분후
의하
재현
중분
지에
출경
폰뱅킹
##fe
마이크
페이팔
154
190
임의로
책임지
ㄴ디
동인
라오
락할
미진
미흡
분양
서구
오지
오며
용어
이피
전합니다
접촉
##32
소지자
이러면
넘어간다
스러워서
숙박업
요일제
거짓말
PW
미처리
사놓
셨으나
윤영
지전
짜린
환원
##18
##14
##운드
##에이
보낸다고
사라진
변호사
구부려
간대
느린
더래
동결
박자
보료
보대
산식
소란
앞부분
윤자
##200
##DE
##완료
어두워
는다던가
##int
kcb
개좌
급도
로만
미동
빌렸
오영
줬었
콤마
키로
특징
한자
휴무
##ey
##트려
어려운게
눌러야지
999
Mo
라든
사아
시더
일삼
키워드
##영수증
올려놨
김정호
깜빡하
반가워
##nter
감수
넘겼
대용
대응
도통
명단
문양
보네
수요
작일
좌개
증다
하예
합니더
##ain
##이면
##남도
빠져나간다는
CAPLNE
ㅇㅋ
고향
그적
기원
대검
돌렸
딸래
부를
선반
였었
오유
장수
##mail
된다던
돌아왔
들으면
딸래미
78
CM
디요
명상
색상
아신
연수
원아
이채
임정
통이
호요
화기
##ss
번호기
휴대전화
현금영수증
올라간다
너그럽
금요
기전
대서
머물
무난
복합
사상
심지
온다면
직각
채로
청일
##59
##33
##어쓰
##찰청
걸려옵니다
불입액
code
##shb
MOASign
대검찰청
ACH
gP
고칠
광화
느려서
다닌
명만
버립니다
비요
스페인
쓸게요
유사
이성
제반
체후
##kv
그런다고
사업소
떨어트려
날라가
잡혀서
이뤄지지
이영자
gPkv
gPkvshb
GU
놀라
도수
따뜻
러시
미완료
선출
세일
스포
시차
씨자
영서
취해서
휴먼
##et
##와야
##꼬박
다면서요
움직임
ISBA
어쩌면
꼬박꼬박
심지어
push
금대
더러
둘려고
문형
이왕
전남
해뒀
##이요
메모리
엄청나
해야겠네
스포츠
띄어쓰
밧데
빼놓
사영
삼천
열네
진해
한게
할꺼
행어
회비
##lq
##기간
기준선
1234
전산망
김희선
밧데리
가압
공격
교도
깔끔
나뉘
낼려
마니
석자
성형
속성
수용
원자
장정
할래요
2400
전세금
1102
샐러리
아울러
Face
거로
구용
규칙
대외
떴었
부적
연구
으응
장치
제니
지내
콜백
##창기
에스아
이동해
181
구만요
올릴려면
광화문
골라
내국
미쳐
업자
용기
육공
잠정
최적
할부
환영
##포인트
1566
최대치
194
부산은행
파트너
##ager
736
910
가릴
간헐
그로
랄까
면도
아인지
이예
인성
일동
줍니다
##ent
케이알
이동하
번거로운
1644
써야죠
규로
그어
끄셨
두요
상민
수화
오버
유튜
잊어
장신
패치
##BC
##lo
##300
##버려
##프로
##끄러
##anager
유튜브
거어
공아
김상
깨진
노래
늘어
도랑
동원
배치
쓴다
유전
유치
허증
이력서
ㅜㅜㅜ
210
스러워
GUID
가압류
김해
돌봄
맥스
명은
비롯
신료
요인
일산
정덕
중기
지상
초창기
치고
피비
필터
하만
해상
##사업
##밴드
아무쪼록
맞춰진
브라운
늦춰질
##artM
브로드밴드
CG
갤러리
대납
대처
마리
어인
전재
전망
줄게
증비
지안
청란
추석
푸드
플랜
협약
환한
##감사
##각형
##밀히
1015
가까워요
16000
어쨌거나
004
중개사
이루어진
스크랩
온다구
김미향
드라이브
CGV
Tra
fax
가함
골프
근대
깜짝
꺼냈
놨을
둘째
래면
문수
분당
사명
수지
심장
지동
체인지
평택
필리
해다
##PE
##신청
습니다만
##ark
보여진다는
9424
필리핀
dat
공중
구호
근래
기숙
등분
민사
북부
생략
으루
주간
체기
할증
##ML
한다는데
환차익
아하하하
MOASignEX
nh
감당
계절
금인
김경
마냥
복자
알지
일으
장면
주심
즐겨
지일
혜지
환승
획득
##TI
##RT
체할라
살펴봐
사오니
김정은
김형우
OY
구네
무유
밀렸
바랄
방전
봐라
사내
설날
열어
영하
주장
했어도
황현
##HR
수신제
빠져야
2023
경비실
정인숙
생계비
AA
금기
난다면
변함
원비
정당
주담
출범
##si
##Mlq
##인가
##이인
##gMlq
정해집니다
가져옵니다
퇴직금
지워야
찾아뵙
##ㅠㅠㅠㅠ
의뢰인
안타까운
금천구
data
OYgMlq
갈려
기면
께선
낼려구요
둘러
봤잖아요
안산
어월
영남
요네
전시
풀려서
화성
교통사업
못한다는
보여진다
동명이인
JP
re
가용
겨우
그믄
그쯤
급재
긍정
기념
날로
도고
미상
방화
벗겨
세표
스펠
시끄러
인근
일경
일러
좌아
쩜네
체해서
테일
##ip
##CO
##ch
##커리
내려왔
달라졌
2600
수사관
200004
베이커리
스펠링
XHR
가질
갈려면
눌려서
맞춘
모듈
발전
서민
선거
쓴다고
양자
역광
일행
장사
정형
지울
칠칠
타로
통일
할머니
행간
허가
환장
대출자
신용정보
109
오만원
올레인
찍혀져
권리금
승용차
91
갔었
격일
놨으니까
닫히
더만
동선
만남
본데
볼래요
삼사
수량
시흥
옥자
이래요
자전
##레븐
##피스
##튠즈
눌러져
아이튠즈
들어갔었
1300
230
지켜보
이탈리아
금년도
##point
61
lg
거긴
디피
라예
무서
빌릴
상금
새요
소상
실장
아끼
어질
엔터
중구
핮니다
650
김수영
##MLON
가방
가락
경승
깔리
박진
위약
총합
포맷
피곤
##71
##EB
##길래
그러지
판매자
바꾼다
종로구
돌아와서
운송장
허허허
아일랜드
기숙사
방화벽
Pay
놀래
담긴
동거
생하
서어
아적
어째
이회
중입니다
청월
치대
한오
화폐
계약직
충전기
매장이
USB
을려는
막혀서
##vel
노란색
더래두
위약금
가령
김포
나기
늘이
려던
먼지
사예
세네
아용
어구
영작
요걸로
적절
전형
줘도
해져
행대
형사
##id
아파서
부여받
계셨었
찍혀야
사각형
는데도요
skt
Olleh
ca
ib
금번
기장
동양
드셔야
멀쩡
몇몇
복제
안랩
열렸
이신
자원
점차
주무
코니
하면
현진
##sit
##700
쩜이요
148
1400
생긴다
4800
받아들여
머물러
93
os
거랑
결원
노동
부로
비하
상무
시외
신중
실에
어젠
옆쪽
의자
이래도
조현
주안
합해
합치
해주
##ed
##일레븐
##평균
내려온
돌려줄
텍스트
여야지
세븐일레븐
WCMMCRT
교도소
고여
남김
모형
물음
번져
슈퍼
우립
인면
점가
체납
체어
코피스
으셨더라구요
친절히
5682
sns
Routing
hre
men
귀국
기신
다중
단건
맘대로
먹히
부시
서가
심플
이여
일한
일별
적어
절제
주체
준하
최창
튕겨
필자
훈련
##ny
##UN
누르기
돌아온
지로나
여행사
살펴봐야
김영한
한건데
정돈데
제니엘
href
menu
Bank
남양
달인
발령
보서
상현
샐리
승차
어리
여요
을려구요
재학
##여행
##FC
##대성
2022
돌려놓
강제성
띄어쓰기
수화기
관하
난단
됏는데
망이
부리
부장
상탠
서도
숙자
안겨
외원
체상
하곤
혜정
어려웠
불입금
세로줄
일어날
##ction
PAYCO
Fax
LTE
그달
달초
데이트
들이
비우
소장
유미
음시
잘라
치도
흰색
##un
##리지
##잖아
해외여행
정해져서
220
260
찾아볼
생겨요
다녀서
펼쳐지
프론데
성남시
KBS
고이
기달
나야
달하
두산
듭니다
러면
버네
본점
분석
사셔
설마
수영
어쩐
연필
연차
예비
외주
제고
창이
혼돈
##23
##TS
##다나
##비아
정지로
전경화
공금
나옴
대문
된지
병명
봉투
서둘
세법
소문
시술
심심
싱가
영순
영주
유흥
이인
천안
취직
통제
합하
##br
##포르
##wi
##te
##tain
##에서
수령자
봐야겠
이치엔
290
채워도
신속히
싱가포르
Enter
NFC
강서
계세
기가
다서
드래
루트
리셋
막대기
미달성
병경
수학
심의
에고
오점
차랑
추측
충당
타가
핑이
행건
현호
지역제
1999
올라간다는
빠진다는
Travel
##tainment
Entertainment
83
Otp
UB
you
강성
갠데
경주
내라
단하
성우
어음
영수
장자
춘천
합시다
##400
##러서
##애플
##깜빡
기다린
바이러스
자격증
2003
전문직
빠져나간다고
파인애플
깜빡깜빡
날아오
이왕이면
##artManager
물음표
최창현
경석
굴리
기프
김명
끊길
끝내
또렷
보건
부인
송파
우수
월말
융사
임성
잘린
제원
폭주
피할
사용량
주소록
프린트기
강남구
7000
fine
fss
ㅠㅡ
감동
경문
누리
사려
사은
송아
의도
이가
정운
져도
졌을
플레임
후드
##46
##이크
##제이
##퍼센트
미성년
보시기
신상품
##side
자전거
Mark
겅가요
공감
구독
금월
난리
도미
무효
부제
세공
시설
쓴다는
아줌
유민
일어난
정동
짜하
차근
치과
카피
터지
해체
##afe
##im
##버튼
했었잖
사망자
##inside
글로벌
풀릴까
##거든요
아줌마
건요
건드리
기용
미미
분산
상아
업장
완화
용원
원고
원내
일렉트
전라
집계
초코
치는
해금
현찰
확신
##니당
계산법
마찬가
못한다
스타일
고속버스
올린다
스위프트
6000
730
WP
dcc
간내
그늘
넘겨서
높여
달서
도어
라카
맞췄
쓴지
야간
연게
요고
월초
윤곽
음어
인건
장지
전공
증시
체지
추진
하려
홍대
후반
##800
##등학
##번호
##군다나
납부금
근무처
275
이루어질
떨어져요
사일까
ㅠㅠㅠㅠㅠ
플라이
걸까
급아
내와
다스
소라
씨제이
압수
을로
이십
이디
자릿
제자리
주전
지희
진찰
청서
체버튼
타금
패이
하일
할께
해아
힘내
##key
##디어
다른가
에이피
128
2013
나타났
으라구
아시아
##saction
계열사
불만족
##ransaction
자릿수
mo
tv
가동
강사
고라
고치
고급
긴하
깜박
내신
내창
다던
단부
당뇨
됏어요
미적
옵니까
용못
일당
자형
전파
좌기
진한
체취
충천
파크
편지
후자
##와서
그러다가
보여줘
전기료
세이버
71
AI
CU
강력
건과
관명
늘려서
단가
마일
맞아
멀티
밀려서
밑줄
봅시다
사물
소음
소급
식이
여가
여셨
연자
위촉
윤상
의문
이스
일방
재결
진작
채움
청와
해원
회선
후원
##래시
불러줄
따른데
전문가
물어봐야
자연체
느냐는
수원시
the
CMA
드래그
갈수록
고성
그제
놔뒀
런지
리스
번갈
번개
불명
빙자
상시
상어
선줄
성과
세기
스스
신차
언재
오입
오년
저건
출재
##사용
##실까
누르시
바꿀라
0001
헷갈렸
버린다
책임자
##ore
입원비
WFPMLON
어젠가
거니
긁히
낼라
늘어난
따가
딱딱
별거
부액
소소
수평
스마
알엘
온단
입주
청경
체받
충남
치매
테니까
한만
해져서
##로닉
##RD
##가기
##원구
##차근
##너지
1001
줄어듭니다
고장난
잊어버려서
##ile
3500
고마워
했어야
##wift
차근차근
이십사
580
81
CO
IOS
No
SM
동반
두면
면상
문전
뭘까
방카
백신
선수
시디
윤지
정근
책자
축구
할래
현명
##채무
지급기
계신단
105
이어가기
검색어
걸려도
보증채무
기다릴께요
하세용
프론가
해본다고
Moa
필터링
##감사합니다
김경태
가린
경화
납니까
동창
바를
보조
본다면
뿌연
서초
스티
아입니까
어릴
연제
일내
정준
조인
주임
청요
청중
하늘
행거
##ut
접속자
기준실
가까워서
##려면은
지워서
제주도
보정역
그럴려면은
시외버스
io
간만
그곳
긁혀
나마
네덜
두신
똑똑
리더
살려
송자
업계
연단
오스트
투입
파킹
하필
##79
##Ex
##버리
##리카
##Any
넘어와야
들어와도
기울기
띄워서
대구시
750
온다니까요
자본금
usb
일렉트로닉
네덜란드
dj
yes
가서
공주
기차
꼐요
날려
니자
단바
도전
됫나요
베이스
볼래
부품
성호
시내
앞장
연초
오로
요점
요령
임미
전할
중빙
체진
회계
운전자
바이오나
번거로움
3600
##MCRD
까다로워
내국인
ㅠㅡㅠ
MarkAny
청와대
스티커
KR
lh
갖춰
구일
그럽
금문
급문
기라
김윤
김영석
라가
려나
서지
연현
오로지
은혜
이준
입비
자사
전결
정치
좌명
직선
충청
##21
##so
##중간
##티브
##깁니다
에스이
번거로워
들어올까요
바꾼다고
바꾼다는
경남은행
OSEN
##ount
했어여
MoaSign
깨졌
도난
무신
부도
사세요
성년
소연
심이
씨알
암만
에용
오예
외워서
인권
자증
적이
주라
지여
통자
펼쳐서
##26
##한도
##ㅋㅋ
카드라
2100
대체로
옮겨오
움직여서
강경수
사은품
Kt
PB
cu
olleh
관여
그간
급원
다든가
면어
범주
부럽
상주
승하
어라
영진
윤정
익숙
인숙
장성
재형
전략
지게
타운
탈락
파랗
##하나요
##찾기
얼굴선
아무렇
사이공
인정받
중간중간
들어왔었
모니터링
5713
김영수
물러나
갑사
광석
남동
떻게
무자
사구
슬래시
시원
식자
씨발
원주
유용
장승
재생
재배
전상
조세
증인
해둔
황진
##fer
##600
##머리
보험증
이동은
261
흔들려
수사대
출자자
스트리
즐겨찾기
상탠데
UBI
가아
게인
경시
경고
경원
놀이
누출
도총
도변
맛있
보람
상미
성향
세종
신체
였으면
올지
장현
정영
지오
지승
진실
쩜삼
충격
풀로
허락
혼선
##제한
이용건
된다구
연금리
생각나
횟수제
어두운데
빠져나간다
느냐고
임미현
승하차
Fz
경력
김창
김대성
끝납니다
네일
대진
됫다
몰리
민재
배너
버퍼
북한
불과
서인
셨으며
수민
아깐
열릴
이수
일생
임상
적성
제재
조카
존경
주고
직종
하영
##ice
이상일
아까워
보냈었
보증료
고양시
이디나
app
cg
강한
구인
규호
그랜드
끼치
내인
도기
북구
사효
송수
시납
시어
옆면
용후
유정
은대
이지
이진
이점
존중
진술
치우
치를
합리
##sM
##ES
##돌이
##리어
그러믄
페이제
전월세
001
경상북도
##brn
스트리밍
FzsM
FzsMbrn
CI
number
swift
거만
계단
고등학
광현
남지
닫혔
동석
라더라
반품
밝기
분점
삼구
선지
셀프
슴다
실증
열장
오실
위조
유명
읽히
적자
정했
지질
취합
플레
한아
##85
##다운
일자리
퍼센트포인트
그럴려구
으려고요
사라져서
이뤄져야
을라면
부턴가
지어서
122
to
강해서
과목
권점
금원
기보
데인
동전
마산
묶이
보편
상수도
서브
손절
어뜨
여력
우자
유저
을수록
응응
이은
인요
직후
차면
피카드
해드
해달
호자
휴처
흑백
##ma
##퉁이
##포구
##DPE
##냐면
이자액
판매가
125
167
##ang
할지라도
다이어
시험장
이뤄지기
CAPDPE
해준다고
9103
CODE
cgv
Co
Number
금정
깎이
끝날
난지
남구
내린
담요
대장
도아
망각
미친
민족
보가
시실
신후
씨아
인차
일후
입국
정화
증고
체면
초등
터로
트리
협박
황석
##직선
##정부
##북구
페이도
기본급
그럴려고
1900
올릴게요
중고차
생긴다면
로우신
##icro
시리즈
##soft
26180
귀하
나눈
다녔
돈다
동현
됫는지
땡겨
로로
만사
미주
박동
반듯
방미
병행
본이
부평
붙인
비시
시정
식품
어딥
연주
영지
외송
월가
유관
윤형
인용
일직선
자회사
좌랑
준수
직사
창만
해질
해해야
했잖아
##ec
실행가
눌러진
사진가
에이엔
가상계
도로는
가산금
2700
지켜봐
내려다보
WFPMCRD
메리트
##icrosoft
어딥니까
me
걸러
겁나
경유
고인
도문
래니까
모기
미보
변수
분신
소통
슺니다
시거
시던
아씨
역사
음고
이현
조율
종영
척추
테마
홍인
##bi
##영향
##기에
##답니다
국민카드
걸려왔
붙여져
gsn
5678
빠진다
an
cms
no
갑작
김범
단일
도입
도이
마십시오
문젠
백인
비아
아로
아플
악영향
앞두
에어
오페
으냐면
이선
이충
입증
적정
지취
천명
체고
추워
키드
해자
협력
15000
최대일
날라갔
모자이크
나갈까요
4500
550
이뤄지는
얘긴데
고속도로
박태원
송수신
9000
Microsoft
npay
대역
동성
든데요
부금
부문
수는
수자
순경
아구
안다고
앞당
어쭤
어딜
용산
유원
응아
의정부
일요
자만
작대기
정일
제지
주된
지셨
출생
치킨
터널
파견
한함
한창
##ad
##미리
##나라
##주부
##부르
이용원
##드려서
그럴까
132
걸릴지
070
보증서
고장났
물어볼게요
교육청
스스로
920
990
ok
강인
건전
냅두
녹화
대명
댓글
동상
따져
래시
메이
보급
사동
삼각형
샤오
쌓였
안가
약국
에는
으아
은정
응해
일기
전분
정서
출상
톨게
평평
핀란드
해경
희경
##안되
##hip
불러서
한테서
메모장
까진데
전신료
구구구
까다로운
스트레스
오스트리아
gsnpoint
샤오미
톨게이트
cb
vp
거야
경호
구오
귀사
금마
급식
놓쳤
됐다고
뒷부분
목사
무형
바다
사천
살릴
상영
상업
세세
슴니다
안동
안보
액도
엉뚱
역삼
염두
이육
잠실
전서
지혜
취상
편해
포르
형자
혹사
##ly
##ers
넘어오
미리미리
다르시
올라요
올라올
대학원
6374
용인시
부러져서
마일리지
KRW
97
BG
LW
gmail
ㅇ신청
간가
강의
강릉
걸루
꽃샘
다라고
당초
대짜
더더
말구
멥버
배지
번짼
벌려
분활
불분
선종
선민
속상
시럽
신탁
외자
용은
원형
원해서
유현
임준
졌었
주한
초년
행할
##적으로
##알겠
촬영가
이자율
108
104
320
vip
떨어진다
돌아와요
화장실
바랄게요
임성주
이십사시
강조
강모
경선
관점
그담
길거리
담겨
대사
떠실까
망하
미룰
벨기에
벽면
사와
성장
세제
시려
아오
예신
의건
이소
인되
임박
창선
추위
추운데
출거
파드
한눈
현시
##ri
##PS
##900
##프레스
##내미
신규대
1700
소유주
3300
라던데요
##440
라이프
부러져
망가져
빨라요
7366
어쩐지
마찬가집니다
De
구리
기여
됏다고
두리
들린다
룩셈
면요
몰려
미용
밍크
박정
밝히
본의
수혜
억울
였으며
영동
영등
음원
의지
자문
장연
조형
최악
크이
클라
키를
튕기
프라
행년
후속
##95
##리스
##차례
##텐츠
불러줘
기타로
비스라
식별자
일본어
아들내미
익스프레스
950
7500
하하하하하
아름다운
그럽니다
UBIkey
##부르크
룩셈부르크
MV
OK
do
강희
경위
골치
관악
근저
뒤져
만천
비랑
색인
소호
송달
승재
어따
엠피
연루
유니
육천
이론
인혁
재제
정가
조종
종소
주네
직이
천정
체서
태영
한상
행동
##조정
##사항
##부로
##파리
이제한
다른지
수신자
5040
가져온
310
매출액
080
039
지켜야
합쳐진
해줘요
끊어졌
반짝이
동거인
남양주시
유흥업
버퍼링
포르투
불분명
ETS
IT
KEB
거한
관이
꺼버렸
나진
날까
납득
돈이
로울
명근
번주
볼펜
비동
빼주
사세
소셜
수법
숩니다
시상
예산
울리
육월
재원
주예
중동
청산
청원
커버
터져
퇴경
파랑
함부로
해버
호경
##mz
##정동
##ER
##에프
된다니
움직일
별다르
7373
저쩌구
7942
시리얼
부적합
포르투갈
520
xmz
가하
게서
게다가
급니다
내놓
눌린
도조
땡큐
목금
병수
보해
사파리
생깁니다
선지급
성미
세트
소주
수면
심각
십분
아나
열려서
오름
유신
잡음
주공
첫째
체개
출납
통시
하난
한강
현선
##NO
##야지
366
2012
보낼려구
페이스북
채무조정
##oul
급해요
##ccount
어뜨케
현시점
COM
강정
개정
고대
고월
근본
금의
동기
무혐
박해
법적
복무
사자
세미
시민
신아
실거
얘길
어비스
열립니다
윤동
인계
전활
정적
정범
조서
통증
패널
퓨터
한가지
환금
황수
##다수
##37
##co
더라니까
155
아야죠
꺼져서
사무직
묶여져
으려니
번지수
빠진다고
이만큼
임차인
초년생
건대
끊김
낸다
데스크
드나
라로
맞물
맥시
모난
보존
사야
시진
에너지
예구
옥션
위안
유림
이음
이태
일제
입이
자구요
재로
조희
직거래
질의
채운
통아
한대요
홀딩
##47
##97
##LS
불러요
기업체
돌려준
들으시려면
돌아가실
smartManager
물어야
될까봐
7375
사과드리
##ate
지주사
박태준
늘어날
맥시멈
AB
가나다
공정
구할
그녀
금명
급경
까페
니꺼
대다수
돌출
두리아
들린
럿는데
미필
범인
부존
세입
세영
어주
원결
정황
조화
중점
채울
철저
청년
출어
충적
취국
취약
코레
투수
특판
행음
##SE
##런지
##빈다
156
103
12000
걸릴까
나온다는데
2900
버린다는
바빠요
겹쳐져서
무작정
진다거나
##ANK
##mbers
망가져서
갑작스
##mbership
LTV
OID
가적
가인
강종
거일
경사
계자
공서
공증
국한
기산
동천
라나
라길래
랍니까
바래요
비에
사소
센치
스빈다
시인
신건
앞머리
영시
와도
용종
음도
의요
일률
입전
전선
지변
쪼그만
칠려고
컬쳐
타요
하오
##1000
##아지
##는대
##98
##dr
##었는데
##저리
개설자
아이핀
이미은
오래간
2001
시켜도
영화관
박성환
부담금
김정구
나타난다면
김창근
membership
번짼데
440
SG
Xs
st
가사
걸어도
과도
디비
라야
리얼
몰래
번져서
분야
비에이
소견
숙이
시용
신대요
약손
양호
오안
우성
울이
육백
이구
절정
정답
제취
주어지
진지
짠데
차장
채용
천아
촉박
충북
커뮤
크로
태국
터미
티오
한통
행업
향하
##el
##대출
##메리카
기다려요
된다네
계신가
해결책
175
177
바뀐지
표준시
편한데
되돌리
082
치료비
850
롯데카드
IPinside
아고다
보여진다고
서둘러서
강인성
전분당
커뮤니
결격
구경
논거
도이체
동아
드러
똥그
로되
명아
문상
벌어
상권
선미
성정
소제
스콜
승희
시신
시아
시현
신사
신천
안다
양진
어에
영정
영리
용품
원은
유군
이송
정아
제제
좌번
지법
출산
츨금
타당
한태
합한
해운
했으면
현직
현정
##연금
드릴려면은
152
아이디어
한국어
5500
880
대가족
##ation
드셔도
아라비아
직사각
터미널
똥그라미
소제목
Kb
NP
관동
기태
다쳤
다영
뒷장
바란
박찬
발간
봉급
붙였
샘플
성실
슬립
시자
시단
여의
영오
용처
용식
위기
재범
져버렸
중임
중대
지진
천사
출인가
큰데요
페지
포괄
함다
##sg
##되나요
상환액
국민연금
255
30000
걸려져
나온다니까
해드릴까
파리바
CASE
될려면은
안양시
객관적으로
구미시
아아아아
cap
Code
오래간만
510
690
LK
cma
wi
가부
거고
건축
곡면
괜찬
금강
긴밀
끝냈
날아가
놀랐
니이
더군다나
뒤늦
보예
본가
생소
선영
설문
수발
스캐
알짜
액과
여백
연출
원해
이긴
자상
전통
지검
집안
차분
차별
청하
크크
택해
토요
한빛
허리
현미
##56
##포트
##너무
##텐데
으로선
선택지
페이만
조건부
개인정보
팝업창
0000
쩜오가
틀린가
4599
만이천
온다는데
프렌치
김동영
대소문자
Safe
간이
강연
고가
긴밀히
김은
김민
단금
드니
드문
미연
미팅
미디어
밤늦
보영
복귀
부디
불교
서든
송영
식스
씨씨
아셔
어필
어르
에도
우신
임자
제자
지그
철도
초대
팔사
한해
한솔
항시
해논
##81
##라면
##이러
##ene
##러운
##DS
##Je
##JD
##칩니다
1004
124
정해질
2016
95000
이뤄졌
스크립
화성시
시흥시
LKp
스캐너
mdr
soul
구애
금우
넘길
농사
당거래
대법
동심
둬서
래든지
마자
만든지
모이
묶인
버그
액션
엄격
원수
월드
위변
유족
이씨
정작
증설
집금
차상
커플
홍영
황동
휴로
##bile
##다지
##시아
##39
##gI
##리스트
##OC
도와드려서
지급금
오른다고
18000
우편함
ㅜㅜㅜㅜ
까진가
틀려도
쩜오퍼센트
명령서
040
힘드신
창원시
블랙리스트
ㅠㅠㅠㅠㅠㅠ
납세자
다녀요
쩜쩜쩜이
##아이피
SCJD
els
관세청
mdrJe
Dm
YES
ㅇ제한
가어
겠어요
근사
꺼주
놨으면
도면
디이
만만
명진
미숙
민성
보금
승연
어기
어치
였으니
오직
요양
유독
장비
정길
졌나
주어
지표
청아
커요
커질
##ry
##인가요
##방법
##LE
은행원
신청인
촬영대
어떤가
들어갑니다
그리고서
으셔요
따라오
알려져
106
123
국내외
되돌아
누른다
브이아이피
줄어든다
nhn
스마일
##알겠습니다
유흥업소
##gIDD
DmgIDD
ㅇ제한사항
보금자리
222
ot
개당
결기
경인
고은
기하
날렸
놀랬
다친
담주
당네
따름
마주
말기
반반
세율
센트
소형
수어
실망
에부터
영삼
외가
요지
운수
일이
제대
조속
존함
주자
쭉쭉
치이
한부
후일
##29
##하세요
##상품
##IP
##생명
##출혈
##더라고
달라이
보일까요
제일은행
1950
습니가
돌아갈
이러이러
의료비
어머님께
050
펼쳐져
관악구
522
DTI
XX
개요
경계
계상
권오
기온
김인
남상
놓친
뇌출혈
능한
달래
대호
드로
멈출
모퉁이
바보
박순
보라
보기
부실
부쳐
비운
비란
사짜
살리
서이
셔두
소시
순천
식탁
아재
아픈
악성
안장
에휴
오바
왔던
이정
이한
인재
자대
재택
주연
중재
지대
지환
짤렸
차익
창자
청분
총무
클럽
평행
행지
행고
호이
화원
횡령
##54
##au
##오요
##스터
##GN
##친절
##블릭
으셨는
아닌게
장기리
남겨진
빠져나갑니다
생성기
가까운지
그만뒀
##all
학생증
생긴다고
못한다면
걸린다는데
##ong
모른다구요
자판기
기로요
payment
취득세
2016035
느려요
게시판
박종훈
평택시
이스나
이점도
어르신
720
gt
구치
그란
그땐
그다지
금납
급증
노원구
다인
당원
무궁
민간
방청
보자
봣어요
비결
사변
상위
서적
실사
쓰이
아쉬
안대
얼핏
연가
용해
용석
원체
육성
윤주
인거
일건
입지
입대
자와
잡지
정태
직급
취지
컨트
컴퍼
키는
탈옥
행한
황지
##우드
##산동
##십일
##hr
##ㅏㄷ
##테일
##받기
##반짝
보험계약
내려받기
돼야만
146
만든다
20180
모자르
에이치이
어떨지
378
생길까
사과드립니다
반짝반짝
##ㅡㅡㅡㅡ
주무시
클라우드
근저당
권오성
컴퍼니
Atm
EPS
SR
wc
가영
객아
교회
구년
구십일
글구
금음
깊이
던대
던대요
독도
디테일
매치
면창
물금
미실
반년
배상
보란
서정
수선
순화
스쿨
신생
어은
예음
오브
외출
울려
웃음
은서
음로
이창
인턴
장세
제인
종교
주재
지청
질까
천하
청한
최후
출려
타기
통로
편히
풀기
할수록
흥국
##25
##ron
##mm
##ee
##데이
##자치
해서라도
보내왔
올려요
오른손
회사원
맞춰져야
어도비
가져갔
한국인
상속자
묶여서
막혀요
준다거나
340
3819
형광등
개발자
##lect
가까워도
오에이
비고란
##ㅇㅇㅇㅇ
김해시
전라남도
세입자
##lectron
DS
In
IE
br
거였
공재
과금
구해
글고
기어
김유
됫습니다
려나요
만용
말고
바스
별칭
불출
브로
사선
사해
성동
송도
순금
신동
신정
아있
아라는
양사
외직
위아
의향
이주
정열
제해
중증
즈음
증기
진동
컬처
콘텐츠
토토
트래
하정
행여
현저
홍자
회로
##크카드
##hn
이제야
거래이
정보지
부분도
보여준
115
301
##레이션
002
139
cont
다라기
2300
263
롯데마트
줄어든다고
김진태
건너뛰
끊어진
서초구
박해연
smartManagerEx
구치소
##lectronic
422
HK
Pc
sbi
tran
ㅓ람
간접
고하
도상
도게
따릅니다
만시
배려
보하
보보
불친절
비와
비목
사료
사주
수색
쉬우
스카
신시
안진
어니
예하
예탁
오리
올립니다
을래
이네
임명
임원
임형
입니더
장호
장식
재창
저고
전인
정관
조직
증하
지은
직중
짜도
출액
투기
파밍
피피
헤지
혐의
황금
황민
##마스
##ho
##저나
##립니까
지만요
15221000
오른다
된다면서
2014
ㅠㅠ네
가계부
테이터
올릴까요
살펴봐도
알려준다는
그나저나
흐린데
구성원
7686
강남대로
##posit
아신다
##log
CITI
and
컨트롤
물금읍
net
갑근
거쳤
겨울
기흥
될려고
딸려
라곤
레이
무늬
보본
부소
상상
성립
소모
실상
연중
예술
우연
원어
인력
인진
작가
잘림
장중
전건
정의
좌변
주도
지실
청호
체증
출급
틀림
편해서
피트
행연
후견
##67
##무지
##프라
관리서
에이씨
1010
남겨야
므로써
나갔었
수익자
2200
이중재
올릴라
298
테스트로
잡혀요
범죄자
##ori
다녀오
1958
elw
어린이집
전시장
##UNT
고등학교
다이어리
대법원
횡령죄
갑근세
my
가이
강요
계십시오
그린
나뇨
대도
려오
만날
명수
무통
문지
문고
물류
미지
백종
버거
부네
부치
뺄려면
사분
서른
성시
솔루
신적
아메리카
어로
예진
월간
위즈
유소
육일
이석
인다
인발
인만
저라
전무
정복
정류
좌해
중학
천에
천국
충주
통계
통환
투명
파출
폐쇄
표상
피아
학년
행서
행중
현준
##83
##가다
##ds
##러움
##단체
##항공
##셔요
대출부
해서인
페이먼
따로이
수령인
내려요
내려와
너무너무
번거러움
평가서
173
다라는
020
생긴다는
선보이
그지요
광역자치
볼라구
1968
아무데나
코스콤
짜린데
AIA
ios
Deposit
영등포구
솔루션
광역자치단체
490
740
ABC
NO
ha
pa
갈께요
곰돌이
교사
금중
금여
녹색
달랐
때기
렇게요
맞음
무역
밴더
번경
삼이
서원
세자
소스
순정
스톡
스테
실속
연하
연채
원지
월차
인구
일신
작중
장유
장아
장미
장건
저항
정용
졋어요
지절
진출
쪼꼼
코팅
헬로
##TR
##lor
##is
##미엄
##란히
##산구
##그라
##파크
라고는
휴대용
사업주
남겨요
2015
1374
잖아도
들어온다면
6500
일일히
560
470
정선자
내려간다
받아들이
경상남도
##프로요
일으켜
사셔서
주재원
바스코
CAR
FDS
LH
nice
갈색
감가
거라
건재
걸고
구출
기왕
깜깜
날지
날리
내도
놨다는
늘린
대원
대월
도화
따져서
떠도
러네
렇군요
리퍼
리포트
면책
모음
문예
문득
백그라
복용
본체
부수
불려
삼영
서음
신발
실선
실무
심청
심증
쓰려
어면
연다
오대
유시
이종
인걸
일렬
자도
잖니
재선
저서
전업
조선
진도
코페
트윈
파운드
팜플
하거
혹자
홍권
##서야
##다리
##어야
##주세요
##그래
##베이
서비스업
에스아이
102
114
드려야지
1970
작업자
225
030
프리미엄
청약서
무한정
얘긴지
1964
들어온다구요
SSL
구로구
짜린가
AAP
간만에
진술서
플레인
커뮤니케이션
드로이드
후견인
백그라운드
팜플렛
890
blog
ㄴ다
가야
갈라고
개이
거시
경색
계제
곤가
공백
광복
기지
김천
꺼이
넘긴
다더라고
단락
달렸
대각
대박
데로
땡처리
막연
만다는
몸무
무가
무언
물으면
베스
볼일
빨강
상희
선자
세운
세장
세재
십자
아웅
안지
얼룩
엠네
열린
오우
원미
월상
유이
이적
입경
자취
잠아
전주시
정품
지효
진료
창고
코트
한인
형편
회서
후선
힘입
##17
##계좌
##63
##49
##으므로
##ATE
이용일
그래두
안내원
157
파일로
알아본
바꿀까
이럴까
##페이스
들어갈라
넘어갔었
차지원
잡혀야
배달원
떨어진다고
이뤄지고
쌓여서
이로운
대행사
달라진다는
됩니ㅏㄷ
날라와서
러시아
추워진
갑작스럽
무궁화
CARD
대각선
몸무게
zer
ㅇㅅ
갖추
건네
경연
공룡
그일
니더
단정
달르
동문
드라고
랴고
리을
립시
만아
명주
불쾌
성저
센티
소방
수천
수작
수차례
신종
쓰레
어둔
오동
오경
오디
유린
인프라
재기
적도
정후
종사
지선
차트
체화
체설
케어
키가
타입
터리
페기
해고
향해
현역
환요
회분
##TP
##ED
##했는데
##러가
##베리
##불이
##릭스
##맘때
으셨어도
정지등
아마고
할인율
계셔요
일수록
해피콜
져야지
에에에
9900
주거지
상한가
##516
제안서
201602
조은주
##ranch
다닌지
김상철
김포시
기달려
기보다는
한상용
박순천
부쳐야
이한솔
499
960
9440
IB
Re
ssg
가해
개봉
경장
광자
기획
김지
끼칠
노인
눈물
동서
동희
둬야
리라
명동
미칩니다
박사
박다
받기
번로
부건
사경
서다
송진
송한
안자
안산시
약한
영인
영월
영모
영광
예번
요약
이프
자이
장년
정전
제때
조이
지바
쪽지
천점
출면
침해
크레
탈착
통사
패션
햇빛
했다
##인증
##64
##진구
##us
##디아이
이용이
신용조
이나마
에스디아이
에이엠
톡톡이
바라볼
한다니까요
112
돌려보
와이어
904
234
FADE
강해져
실려고요
버스비
##ART
물어도
가정주부
알려준다
을려니까
보였었
480
풀려야
걸어가
유가족
블랙베리
정숙하
타이어
WCMMCOM
잊어먹
your
해드린
20180516
zero
680
Wi
account
fore
ㅇㅣ
ㅇ사용
가감
거신
공어
과실
그라고
금한
김종
네임
다다
단서
도훈
머지
면당
무튼
무배
물결
미산
미터
바이트
박지
백스
사삼
생산
성대
섹션
신어
신부
알기
양산
역가
영심
예일
올게
원성
월금
유아
융자
응가
일출
일평균
입학
자재
정석
정과
제윤
조달
조민
차인
청안
출진
칭찬
평면
한기
합당
해석
행면
행상
행했
헤제
호가
호전
##89
##rp
##ld
으셨으니까
그런다
얼마큼
내려올
##러스트
수신인
정해야
168
13000
내보여
들으려고
보인다면은
선불카드
가진데요
쓰여져
##ence
출고가
숙박업소
세미나
수작업
foreign
무배당
455
ACC
Ahn
DX
FP
Ke
ab
가랑
거음
경환
구삼
구건
권선
기변
노면
노틸
놔요
뉴욕
는냐
단추
달도
달랑
대나
됩ㄴ
됩닏
등산
렌트
만고
망가지
맥주
모쪼록
박철
번역
법요
부주
분에
비거
삭감
산재
살아
상일
선별
수상
시나
시에
시절
안다는
알티
연류
예민
오정
온이
와줄
용고
용태
월평
이명
임조
잘렸
재실
재연
저인
절감
정안
정강
줄지
진시
차종
창업
청문
크리스
키우
태자
하심
해줄
황태
휴업
##fi
##IGN
##에요
##차순
##AL
##ㅂ니다
그리로
203
인지라
우리나라
아닙니다만
사이즈
나머진
그럴려
빨리요
138
가만있
민원실
297
살펴서
50000
2800
어쩌다
370
중계기
잡혀져
심한데
진단서
전년도
점점점
올린다고
통틀어
사지원
마땅히
지날수록
느린데
AAA
이신혜
천안시
강서구
전라북도
인건비
vpd
아아아아아
쓰레기
DXz
KeM
노틸러스
640
810
930
BA
Sm
for
pin
거거
검출
게이
구아
김순
껀가
꽂혀
나인
내규
눈코
된답니다
될라
랬더니
명운
무증
문인
문기
뭉개
미형
박주
백세
변해
비산
빈스
삼오
센서
수만
억만
여고
요하
용서
월부
위드
이맘때
인생
일러스트
입자
장림
적거
적어지
전우
접하
주만
촬용
콜로
통영
파워
피오
피발
항소
행회
활발
회중
회일
##52
##wM
##do
##IC
##버린
##생활
##월드
##냅니다
은행업
거래자
정보상
으셔서는
통해야
어쨌건
197
1990
137
이하일
0003
color
영원히
22000
으려구
드라마
타이밍
고쳐야
쌓인다고
부천시
화장품
코스피
1984
조용히
무서워
SMART
긁혀요
##eck
미용실
NPK
방청권
##TRN
리퍼블릭
JX
가중
개년
건기
계성
계층
고령
고통
공익
교대
군산
기발
끌어
던고
도과
동재
동향
라다
리모
리라고
모았
목포
물으
미부
박소
버벅
번고
보냅니다
본전
부각
비면
비련
빼지
상점
세분
소수
송문
수성
시황
약일
어뜩
올려고
우회
원서
원시
유추
이서
이승
인센
일보
자수
제스
쩜에
쩜넷
쪼개
최지영
컴맹
토지
투도
편합니다
플래
하가
학기
협회
회가
##크로
##금액
##NwM
##fc
##을때
##하는데
##는거
##SS
##떻게
##수단
##주자
##저축
그러셔요
이용충
신용한
회원증
기준율
알려야
한다던데
반사로
초과분
그럴께
려는지
166
플로우
시켜요
0059
잔여기간
달성군
못해도
228
부산시
지하라
292
부담액
롯데월드
는대도
왜냐하면은
으려니까
깜빡했
380
보인다거나
가진데
독촉장
ㅠㅠㅠㅠㅠㅠㅠㅠ
자린데
해야겠다
둘러보
사셔도
브로커
파출소
zeropay
NPKI
JXNwM
인센티브
390
Electronic
NPAY
it
sc
xhr
강세
강자
객의
거용
게도
겠다
겠다고
고셨
고리
관광
구고
구어
그다가
급가
꿧는데
넷플
단돈
당근
동봉
든다고
디데이
뜨신
래네
로라
마인
문정동
미라
미선
바래
반말
복장
비서
비전
비친
뽑히
사거
사음
삼하
상원
상월
서현
선아
성숙
소이
송선
수업
신하
엉망
여아
예수
오초
온지
온스
올른
용문
원일
월입
웰컴
이혼
일서
자구
자란
장안
조립
좌도
천분
최하
컬럼
클리어
택란
함입니다
회이
##sp
##31
##여서
##어서
##디ㅏ
그러셨
연결로
##해서요
교통수단
107
인터폰
불러볼
그건가
127
신데도
235
232
되돌릴
걸린다면
652
잊어버린
으려는데
이뤄진
시킨다
7359
나면은
나간다구요
숨겨져
##ram
정규직
분당구
JPG
적어져
속상하
수혜자
김인경
무언가
ㅇ사용기간
비거주자
넷플릭스
Ch
SH
갈켜
갈려구요
강유
건희
고현
구지
굿모
그야
금세
기명
나희
내놨
내버려
네년
는단
달려서
당오
더디
두부
드라도
랄까요
명가
버번
번복
보화
비지
비정
사채
상용
상사
서당
숙영
승모
써진
아선
알긴
엔가
영아
영해
오진
요원
웅사
위경
유나
유천
이비
절세
절단
점이
제철
종기
주정
주현
준용
쩜컴
챙겨서
천경
초회
초간
출동
트렉
팔천
편해요
핑계
한진
했으며
협동
환호
효율
후대
희한
##구니
##am
##직자
##FAR
##xx
##발급
##스톱
##테크
##봅니다
케이엠
이용도
기다려줄
해당자
OTp
에스에프
아이파크
개인용
면서요
업무상
불러도
올려다
요구시
지점장
내보낸
모른단
SAFAR
그려진
5800
398
lte
부러졌
1998
##stal
여지껏
주차장
해상도
벗겨진
신중히
mobile
수면제
환금성
스크립트
컬럼비아
굿모닝
SAFARI
HO
PG
TLS
cry
pro
ㅏ요
가물
가수
간다면
거저
건다
걸랑
결번
계조
구육
그르
기게
김기
나눌
나갓
났었
냐구
노현
늦추
다가요
됏는지
든다
마흔
만서
무용
미신
미결제
박석
병진
봉준
빛나
성문
소단위
수금
수다
쉬울
스킨
식대
써놨
알릴
앞수
야하
엣지
여수
열지
예용
오니까
왜곡
월경
은인
음기
인트
일과
임충
자로
자어
자자
저는
제정
줄인
지신
지윤
질수록
차기
차인데
참나
천상
총장
택해서
포트
풍경
학인
한겨
한방
행기
회전
##sm
##동생
##69
##하고
##94
##부동산
##OUNT
##YE
1524
에게서
구매자
그랬던
쩜이에서
걸려야
165
174
임대인
종합부동산
2024
274
항공기
265
200012
드신다
틀린지
##ill
##ort
줄여야
박수빈
힘든데
##BKTRN
모른다니까요
1966
9600
날아왔
흐려졌
200005
준다면서
멥버십
출납부
20160358
소방서
쩜넷이요
crystal
앞수표
종합부동산세
Ag
JT
bit
cU
rW
tp
ㅜㅡ
각성
고를
고쳐서
광동
광양
국회
기름
는진
말소
매핑
명문
모래
뭔진
미영
밝혔
본격
산지
스니
실고
어아
어비
없앤
영육
오도
오팔
올림
와우
왔어요
왠만
외근
요리
용무
인테
작증
져다
졸업
종식
지양
진모
참으
천지
천마
청주시
포이
폭발
피크
해면
화학
활기
##bk
##nV
##aS
##다니
##62
##한다
##마켓
##어져
##pnV
##퍼레이션
##엇는데
##들이
##슈랑스
이용수
부분음
원활히
에스피
정상아
정지인
1040
불러다가
올려져
지나치
쩜이프로요
는다면요
277
정다운
채무불이
##iles
3771
온다거나
##est
7347
##ase
무한대
물어봐서
줄어든다는
김도희
타이핑
강동구
망가졌
슈퍼마켓
서둘러
##tep
WPBKTRN
방카슈랑스
Kbank
ACCOUNT
클리어링
rWpnV
인테리어
채무불이행
rWpnVaS
590
OX
kn
po
pg
routing
ㄴ데
가액
갈까
감추
강진
관수
광주시
군자
군산시
금용
기운
까이
내놔
놨으니
당진
도출
두실
딜러
래이
마사
만월
명성
명기
무사
무대
미개
미등
민망
부월
부양
삼동
속해
쇼파
신대
쓸데
안도
업적
오상
오륙
요걸
용현
원했
원투
월화
으이
이호
이에
이재
자살
장재
재청
전도
점원
천백
치지
칠천
탁상
하차
합칠
화정
휴식
##가물
##fic
##ap
##ist
##ur
##모로
##XPE
##Lab
##스토
##곡동
##뱅크
##걸요
해서인지
서류고
여러모로
사이다
이동식
미니스톱
지난해
관계자
1920
올리브
돌아갑니다
215
145
해놨으니까
##artm
403
이중환
그런지는
사라집니다
백수진
물어봐도
세이브
조합원
35000
버린다고
530
힘드실
떨어져도
여태껏
##asign
합쳐져서
CAPXPE
6280
구청장
사신다
갈려고요
놔둬도
##rok
됩니당
WCMMCMC
해줘야
공모주
9999
다던데요
홀딩스
신천지
content
살아나
한겨레
420
780
Cafe
Gs
MC
WW
irp
nfc
개근
곡개
과학
군청
금수
나란히
낸다고
닌깐
담담
동적
동탄
디엔
띄엄
라게
래여
래서요
레벨
마신
마셔
만성
명하
모도
모은
박재
반절
부드
부일
부처
블릿
사가
사학
삼회
서진
성분
성북구
순번
스런
악감
안성
양천
여하
연유
예원
원동
원거리
월평균
유중
이보
이날
입중
입술
저리
점구
져버려
준호
진명
쩜은
쩜아
찝찝
처한
코퍼레이션
테니
테스
팔자
팔팔
편인
플랫
한적
할텐데
행예
행자
현수
호아
화가
획인
##mer
##지요
##은데
##93
##SC
##gram
##밀리
그럼으로
라는지
페이사
24000
아파요
올려볼
302
어려워졌
김현이
191
192
한국은행
여쭙니다
열려야
278
공문서
들어간게
엄청난
원할히
김정률
바르게
CAD
쌓여요
##age
전철역
7700
끊어져서
건들이
수용자
최적화
늘어났
0045
동선동
돌아온다
송파구
긁혀서
더더군다나
홍영기
wcmm
IBAN
했다니까
AhnLab
될라나
가물가물
460
DR
NCB
mp
갈라
갈음
강현
강아지
거져
과외
국문
국외
궁극
권혁
권태
김석
나팔
낯설
놨단
다더라구요
데기
드디어
디오
뜹니까
라두
마져
막말
만면
맞이
명리
몰려서
미쳤
배분
법상
별한
별게
병무
비니
비려
선적
설이
수분
신거
알팔
어데
엠알
열라
영도
예려
외기
유승
윤식
으란
이도
이입
이브
일할
일절
장경
장단
재이
정구
종시
좌우
좌어
좌석
지르
찜찜
찬양
체문
체메
출판
출외
크시
키워
탑승
태도
할찌
합친
허나
헤어
현기
환내
##58
##Transaction
##RE
##어떻게
##군데
##cu
##읍니다
된다기
된다며
1576
241
111
넘어왔
509
나올까
정해졌
바라봐야
1960
1980
216
143
하얀색
물어봅니다
올렸었
최소한도
상호저축
광주은행
게임기
##ith
정할까요
고소장
물러서
돌아간다고
아신다면
일으키
무서워서
camp
남동구
앞당겨
ㅇ신청기간
해버릴
맞물려
SafeTransaction
아쉬운
##orib
AAPLNE
SmartManager
제스처
contents
상호저축은행
620
UX
VIP
korib
mn
un
간지
검문
계양
국자
규문
금신
기구
기승
기복
껴도
농업
니나
다신
대세
대시
더운데
독자
동대문
두어
둬도
뜬금
래지
마마
매물
먹혀
모셔
물려
민트
민국
박혜
방수
벌리
병력
보로
부진
부스
비록
빡세
삼일
상고
선임
수빈
스랑
시며
시범
신우
신수
신형
써져서
어마
열받
영민
오기
용수
용액
이르
인고
입상품
자니
자결
장관
재석
전아
전했
전민
제다
제전
제법
지창
지킴
케티
투라
프랑
한텐
해봐
행안
햌ㅅ
헌데
호호
홍사
회산
##be
##아니
##입금
##말로
##보증
##tA
##hNO
##저래
간편히
는지라
모르시
정기형
인데도
246
이어질
118
입니까요
185
133
2025
149
던지요
224
와야지
45000
570
당했었
660
IDhNO
느냐구요
시킨다고
##ess
4400
다녀야
3900
올라와서
얘긴가요
취해야
1995
읽혀요
였음에도
수십만
고양이
훈련소
iolo
김윤심
김윤희
충청남도
LWS
ㅇ신청방법
하난데
흥국생명
DSR
위아래
크레디
Agent
##roker
개근상
부드러운
병무청
IDhNOtA
940
MBC
Th
Tran
jb
pl
간사
강구
같애
거구
거하
걸음
견적
공종
권종
남색
냉장
노하
당부
됏나요
두지
들렀
뜰까요
래야
러요
리원
모건
물산
방어
보훈
부자
비즈
빼먹
사법
선이자
송구
수일
수건
순선
승리
시력
시골
신창
실현
싶어요
액티브
연번
연습
오금
오현
요정
윤년
은평
일호
일층
자내
작정
재화
전적
점사
정송
정설
정체
정태현
좌고
주제
지중
찮으
체구
추전
트라
펼치
행주
홍기
후문
##53
##서답
##84
##sr
##PF
##ws
##EL
##um
##띄엄
연락도
눌러라
동일인
준비물
정지만
에이스
드린다면은
한다든가
불러온
##550
가져다가
164
알아봐야
어두우
풀리지
만든다고
901
비자금
294
가끔가다
쩜오프로
버려야
457
정수기
사인데
본다고요
이뤄지며
상한선
##itut
1969
1967
##red
헷갈려요
타이틀
2016026
나빠서
신비나
느껴질
해줘도
안타까워서
##stitut
스위스
지내역
노동부
not
해운대
oto
이창민
김유정
트래픽
HKPF
동문서답
돌려보내
미등기
띄엄띄엄
원동기
mnu
Ars
han
sent
강도
갖고
경요
계기
고걸
고픈
곱한
과부
권단
급작
꺼멓
내공
놨더니
대결
대나요
됍니다
두순
디딤
때메
리조
마셨
만위
먼가
목동
박혀
박장
방크
배스
백업
번인
벌려서
벌어지
부킹
사태
사셔야
산동
산다
삼심
상다
설후
성희
셔라
수많
시시
시공
아영
안팎
액고
엄한
엄밀히
예명
온데
올래요
용가
우짜
웨이
유행
유환
으으
은진
응원
일안
임선
작인
장문
재료
재향
전데요
정민
정맥
제사
조소
지처
청가
총민
충치
침대
테니깐
토론
통째
평화
표면
품고
하래
하다
하연
한거
해오
해버려
허브
호원
황인
##afer
##을까요
##아버
##der
##ot
##어서요
##그럼
##DP
##두요
##체크
##cr
체크포인트
더라니까요
분실물
204
242
문제지
돌려야
17000
내보냈
144
267
살펴볼
이래저래
흔들린
넘겨야
가격대
출입금
금호동
도서관
올라와야
CAPP
모집인
INI
어이없
나타난다
장난치
갈려니까
##UNG
남양주
##ung
시술자
손절매
역삼동
뒤져도
돌려준다는
성실히
김은호
기흥구
수성구
재청구
##stitution
630
840
980
Jn
MG
MAR
email
가도
강신
갠가
거듭
거라든가
계이
계수
교부
군부
기성
김근
꼭대기
나다
농축
높혀
놧어요
누루
누님
능이
다량
당자
당대
대액
대교
도나
독점
동관
동국
됩네
둘까
땡기
라거든
로요
록과
리부
마누
마라는
면적
면접
면밀히
명서
목어
무기
박홍
방도
백정
브레
비켜
빠짐
사에
사연
사생활
상화
상처
소변
송하
수명
수능
시군
식구
신도
아산
아랑
암요
양화
양산시
연근
연재
오수
외산
왼편
왼손
요추
용전
운형
의류
이찬
일변
재경
전동
제계
져와야
졋는데
종소리
주진
주황
지용
지식
짤린
청취
출조
카아
케시
클래
편대
행당
혁신
화인
흑흑
##라구요
##ir
##포시
##eo
##필증
##겠지만
158
1599
1009
내려야
건데도
오른다는
113
봐야죠
돌려요
이라구
121
129
쩜이로
부족분
올라구요
빠져나온
163
ktb
전문점
어떠신
142
010000
혹여나
나갈까
299
들어와야만
프리마
8500
파이로
준다던
잠겨버렸
1994
해본다
느려져
보낸다거나
김상혁
봐야겠어요
그늘지
해드린다
더더욱
김순연
여하튼
##ageS
박혜연
해봐라
디딤돌
Jnri
540
670
AM
PIN
be
fds
ra
sh
transaction
가예
가내
감하
거려
고동
근자
근년
금계
기적
냈었
넘치
니요
다도
달린
당음
당주
더기
더치
도우
도무지
동남
돼지
될런지
됫네요
드물
라운
레스토
류경
만여
만화
망원
무얼
반지
백은
번번
보신
본래
부영
부광
분위
붙일
뺀다
살살
삼색
서복
석이
선태
성능
성훈
세아
속증
속초
송동
수택
시책
아진
양지
양재
옥수
욕설
우면
우위
월다
유대
음가
음료
이트
인외
일진
임기
임종
입면
전가
제후
조청
중자
중출
중반
직책
진선
청자
추이
치세
카든
커드
큰데
키나
투어
파주시
포스트
폭행
피면
함당
해수
행적
홍현
활자
##rr
##Broker
##ac
##38
##해하
##천동
##어폭
##일보
##그러
##겠다
카드리
가입금
페이머
통해선
한다해서
이어진
새로이
이동제
257
1899
가져간
투자자
169
1670
134
돌아올
가까운데요
는다던지
는다니까요
중개업
smart
연기금
575
파이어폭
3282
이뤄질
바뀔지
3400
##orm
정수정
4900
이리저리
1965
들어간다구요
나타난다는
들으셨겠지만
조은형
광명시
너그러
usim
동호회
포스코
삼천리
둘러져
입주자
기차표
금정산
급식비
멥버쉽
해버려서
EPSBroker
기왕이면
JTBC
WWW
DRM
리조트
배스킨
MARK
레스토랑
파이어폭스
BANK
Ra
Transaction
ho
jt
kT
ㅡㅜ
가졌
갈리
강수
객사
거적
거제
거라고
검체
과연
금구
기스
나선
나영
난데
남아
내정
농장
는고
단타
대당
도선
도예
된대
드가
뜬다면
려네
로페
만하
만호
망설
메가
며느
면회
명지
모빌
미증
바비
백지
보설
부이
빈칸
산청
삼단
상표
서예
서야
서툴
선경
성씨
셀러리
스면
승화
신림
심해요
썻던
안창
액변
약해
양성
어류
어둠
에겐
오조
오고
올래
용했
우째
원점
원음
월래
월지
월등
위비
유수
이까
인어
일음
일번
입네
자보
재건
전균
제진
제부
조알
좌면
주구
줘라
지유
직하
쩜세
착전
청도
청어
출미
출결
출리
칼라
타른
팔구
팔리
프랜
피상
한잔
함인가요
합격
향자
##지물
##송금
##고기
##iary
##증명
##IA
##전자
##CP
##역시
##GE
##변경
##겁니다
전화번호
발송지
2046
11000
306
수신함
182
19000
131
3100
141
그만둔
참여시
언니네
0586
3700
3200
이니셜
스크래
3430
컨설팅
7376
대여섯
##lease
646
들어간다거나
들으셨다면
적당히
7200
ini
남겼었
연구소
고등학생
trans
크리스마스
이비카드
무용지물
장단점
koribor
은평구
##아버지
분위기
너그러이
일번지
전화번호부
430
CSS
iOS
se
vs
게나
경감
공기업
관두
구도
굴러가
귀속
그어요
김치
김장
깔려서
껴져
남궁
놓쳐서
닙니
대폭
된데
됫나
라빈
로켓
리카
마아
마원
마포구
맹장
모호
뭐시
바요
반호
받침
방면
백아
번진
보충
불문
붙혀
빨라도
서료
성기
소년
손주
송화
수로
순연
스프
스펙
시서
시연
신선
쓴다면
아려
야이
언스
언저리
없인
연평균
용성
용대
우이
우기
우림
육이
이엘
이싱
인게
인까
인결
임진
자공
자막
잔량
장대
전근
정년
정찬
정립
제직
좌와
중독
지병
천도
천오
천재
청지
총괄
축적
출석
친척
칠까
커져
타드
타자
토어
풀립니다
하공
한군데
현주
화물
휴폐
##MNO
##해지
##92
##wp
##네시아
##근무
##재단
##광역시
##덱스
진행주
말씀드려
연장전
207
오른편
가맹이
364
171
ktsm
312
239
708
269
찾아갈
으라이
어쩌다가
이천만
어떤지는
4200
인도네시아
유성구
1961
달라진다고
8690
스러운데요
인수단
깨끗이
공급자
쌓인다는
게시물
7367
시흥동
ibene
조인영
남동생
계단식
##anger
다이어트
담겨져
##enefic
전업주부
렌트카
##dobe
hanmail
군부대
주황색
클래스
##ageSafer
번번히
ktsmile
KCP
UI
WEB
ㅇㄴ
ㅓㄴ
가은
간섭
경안
경어
고수
고의
고라도
공상
그쳤
금해
금속
기와
나예
네인
노랑
누릴
다경
달고
대천
대국
도감
동진
동록
동백
됫고
뒤편
디에이
뚜레
만져서
매서
몫돈
무음
민지
발인
베타
붙들
비바
사호
섭이
세문
세주
수습
술집
스탠
슬기
신입
신촌
심시
쓸모
아참
안에
어온
여미
연료
오더
올께요
외고
외형
워드
원원
원단
월건
유안
윤하
윤여
이드
인즈
입도
입미
장부
장터
저작
전수
점주
점결제
정고
조상
족건
종진
주력
집지
쩜육
찍힐
차일
청할
체다
취한
층수
콜라
평사
품명
하동
해사
해안
했읍니다
형제
화나
확산
환문
회면
회장
흡연
##87
##라이
##명령
##BO
##가능
##적금
##신용
##91
##나오
##SB
##SIGN
##러지
##장학
##걸이
##끄럽
##닉스
네이비
내려놔
1060
불러야
바이크
116
이라는
1250
쩜이고
최고점
살짝이
1979
한국장학
중앙대로
근무자
0032
등기필증
212
315
는다는데
나간지
우체통
295
296
쩜오요
버려도
333
파이나
을려다
넘겨도
겹쳐지
떨어진다는
7600
625
라이나
1997
포항시
하한가
키움증권
안타까워
kcp
elf
드라이버
PAYBO
CMMNO
일으킨
튕겨요
쩜삼오요
됫다는데
오페라
vpn
##ERA
우연히
송진우
그야말로
김석주
뜬금없이
크레디트
Transit
노하우
CAPPYE
스크래치
##eneficiary
한국장학재단
PAYBOOC
870
ABA
BP
ED
On
Pro
RP
UN
qG
sang
가래
가음
가느
갈게
강북구
건진
겠지만
공천
구자
구석
구굴
그람
금공
급등
기동
김주
나니
났으면
농담
는까
다지
다길래
단시
당구
대실
도지
도월
동래
동물
동감
됏다
딜레이
라나요
력사
롭스
말이
멋대로
명일
무휴
무단
방제
백금
백마
법문
법규
보소
부동
부연
비어
삐삐
삼육
선기
성권
성찬
소가
소녀
숙지
아산시
액후
야해
약시
어렸
역이
열정
예도
예거
오인
오다
용상
우분
유라
유산
응용
이물
이증
인은
인디
자지
자궁
자액
자발
재계약
재테크
전요
전어
정장
정봉
정릉
조아
조수
종성
종복
주아
주상
줄라
직계
짐작
짜를
참석
천구
천리
체세
추구
충고
취록
친정
타격
편계
편법
포인
포코
필선
하미
할아버지
향할
환희
흔적
##니어
##TA
##진다
##750
##SP
##UD
##Uau
##qu
##화면
##현동
##창석
##언제
##놔서
##빨리
등록세
그런다는
이자인
급여액
아래아
10011
오류동
205
한다던
넘어지
멈춰요
멈춰졌
504
259
184
지문자
1750
어야지요
나눠집니다
CHA
1450
233
옮겨놨
채워져
284
0582
매니아
볼려구
기에요
늘려도
멈춘다는
나을지
사인가
7372
##ast
OPERA
NHN
가구원
버릴까
피부과
##ONG
기아차
박민성
김성호
어두워도
유치원
1095
적어질
높여서
되돌아간
재택근무
용해제
중학교
마사지
raB
RaUau
sangu
우분투
이물질
RaUauT
820
BOA
FI
IM
au
branch
ㅇ요
ㅛ는데
가전
개회
거진
거실
건드렸
결하
고발
공직자
구백
규성
금연
금약
기약
길이
납액
내서
누굴
다나
단다
단게
담자
담창
당겼
대회
대오
도음
도당
되야
되잖
드시
리라는
막판
매기
못써
박모
방치
방학
벗어
본다면은
부쳤
분납
삽니다
서장
성사
성적
성일
성후
소영
소매
수라
슬프
신장
신혜
실아
실버
썼잖아요
쓸까요
씽씽
아자
액면
어보
어젯
여동생
역아
역어
영춘
오케
오퍼
옥이
올까
우아
원에
월요
유석
육자
응하
의아
이엠
임한
자월
장선
장가
장하
저지
전차
절치
정소
정문
조제
조급
조창
조언
중이
지음
진구
진하
진기
쩜대
추징
퇴문
티어
티브
패밀리
프티
플러
피지
피알
피터
해선
해온
햤는데
홍홍
화소
황현주
##ame
##li
##적용
##45
##마다
##마이
##FO
##UR
##주의
##네네
##AC
##OO
##웨이
##녜요
입력단
그래그래
들어옴
아이스크
프로토
다가와서
자유식
내려와서
예약자
수신일
삼성전자
구매처
이라두
김현준
안전성
다니요
135
136
219
떨어져야
서울보증
20200
발신자
조치원
273
작성자
찾아오
흔들렸
6600
무직인
김정근
3800
온다던
정수환
진다구
521
CAPATE
이리로
##ppy
들으셨다고
부턴지
내려간다고
받아들일
금하신
낮춰서
그로스
주안동
도미노
마찬가진
할래니까
조속히
종교인
스카이
버거킹
일으켜서
다다다
예수금
걸랑요
각성제
쓸데없이
sentence
마누라
라운지
##rror
어젯밤
아이스크림
서울보증보험
760
770
860
877
card
lo
ms
main
top
ㅇㅏ
ㅇㄹ
가가
감싸
갔다
강북
겹친
경보
고게
골든
공로
구한
국방
군용
금금
길동
김아
깔린
꺼질
꺼낼
나인데
냈으면
네어
네타
노선
단결
닫힌
대목
둿는데
든여
디버
떄는
로직
로또
로워요
매점
명실
모후
문진
민기
바깠
박보
박근
반전
방가
뱅키
번은
베스트
변할
별반
별짓
병어
보전
봉자
분요
분화
삼주
상도
상록
세신
세수
셀룰
소거
소화
속한
쇄창
수별
식상
실족
씨도
아연
아녜요
약가
어선
어적
어원
어처
어허
어색
억지
얼기
여라
연지
연월
연만
예보
와인
용음
우러
위생
유준
유투
윤명
이처
인중
인체
임지
입점
자를
잘려고
잠겨서
장원
재사용
절약
정예
정공
정혜
조경
종전
준이
줄래
줄였
줄까
중부
지랄
지킨
직결
처네
체적
체형
출사
치르
카더라
타원
태호
페북
프록
피치
픽스
한서
해어
해봤
했으므로
홍명
환은
휴게
##서명
##se
##소득
##한가요
##이나
##ear
##어여
##장소
##베이스
아니하
거래세
도와줘
그럼은
내용물
으시겠
보험업
159
기준점
248
결과지
한다기
캐시비
소중히
맞춰봐야
보통이
비춰질
빠져도
186
공공장소
증권가
데이터베이스
상대측
162
179
전자서명
1350
대화방
나타내
다릅니다만
축소도
찍혀도
부담없이
몰랐다
틀린다고
을려구
공통점
다이요
세워져
가신다
간다구요
할라면은
대전시
0106
지지난
모른다니까
제작진
445
라이브
payco
8667
98000
전북은행
인원수
##vent
쓸려는
급상승
골라야
시끄러워
봐야겠지만
앞당겨서
##hod
ㅇㅅㅇ
##인증서
리모트
플래닛
##redit
빠짐없이
디에이치
비바리
해봤으나
055
710
790
DM
DB
ET
Mr
RS
day
fx
ㅇ이
ㅜㅠㅠ
가늠
강대
강추
거액
거칠
게라
경운
경주시
고적
고아
곧장
공영
귀퉁이
김태
꾸벅
나두
낸다는
논의
다실
다급
다뇨
담기
대인
도약
래우
러창
리수
리워드
마구
마약
말지
망해
명화
못함
못내
무도
무주
무응
문재
미러
민서
반쪽
받쳐서
보지
본도
볼꺼
부세요
사계
살까
상병
새겨
선언
세월
송정
수랑
순자
썻어요
아팠
에세
엔드
여담
열두
염증
영천
오선
와아
외워
운자
월도
유입
육팔
이문
이럼
이규
이과
이딴
인종
일중
일개
입어
입화면
잆이
잔화
장고
재보
재일
저긴
정세
정사
제금
제신
졋나요
줄께
증사
지송
직정
착한
체번
체외
초음
추경
출수
출분
취미
켯는데
클로
타계
타령
토일
통주
튕겼
티엘
판명
패키
포탈
피한
하리
한들
해버렸
핵심
행신
호랑
화동
회납
회어
회당
효주
후부
##27
##라스
##세프
##지원
##관리
##려금
##이즈
##천군
##제가
##부탁
##대상
##불리
##ㄻㄴ
궁금해하
현재상
동일시
아까운
신다니
기능도
발생기
지급식
에이아이
한다며
계십니까요
회사기
가까운데
보통어
남겨도
188
빠른데
예상액
예치기
0013
0081
0009
가까운가요
14000
열려진
붙여놨
편한지
모아놨
바꿔야지
옮겨졌
gspoint
간다니까요
OSX
산업은행
교육비
펼쳐집니다
올린다는
간호사
2016015
##해야하나요
ipinside
1953
1957
모자란다고
가라앉
고칠려고
할부금
다던가요
부평구
모기지
용산구
유니세프
ABCD
기달려야
됩ㄴ디ㅏ
피오피
Check
무사히
unist
먹혀요
브레인
Program
프로토콜
디버깅
셀룰러
무응답
패키지
344
399
596
610
Account
AUD
FR
GB
Opt
TEL
event
강좌
거아
건다고
걸칠
경미
광산구
교수
귀여
근속
금등
급합니다
기서
기출
기역
나도
날일
누름
답주
대범
됏습니다
되찾
두개
든다면
들립니까
때려
렌탈
려도
려거든
렵니다
마진
만져
매트
명도
명쾌
몽땅
묶일
미스
밀어
바운드
반성
백성
부지
부류
뺴기
사다리
삼조
상납
상평
세라
송명
수감
시구
신명
실존
심정
써니
안상
야구
어폐
얼추
엇다
엘레
여인
여여
여어
예자
예찬
오음
오순
오종
외장
우서
우실
윗단
유주
윤신
으하
으까
은고
은경
은영
음지
응급
이의
인음
인분
임다
입구
자려
장려금
재계
재입
저러
전진
정균
제랑
제망
져왔
졋네요
졌잖아요
종요
주경
주초
중용
지위
진상
집단
쪽상
찍힙니다
차질
채원
챕쳐
체통
출대
출원
켜졌
코나
큐어
타일
통금
투시
풍요
하비
한식
할당
해시
해긴
해쥬
해커
행경
호진
회자
후보
##5000
##도라
##150
##니꺼
##조합
##ND
##ff
##mld
##aign
##나여
##pm
##ㅎㅎ
##CX
##AP
##OINT
##VD
##혹시
드리우
아니한
이제서야
변경재
예금보험공
그래서인지
드렸으며
에스라
통해서라도
사업비
상황실
문구점
나왔으니
지나갔
돌려도
돌려볼
저축금
피해야
전용인
con
236
237
바뀐다면
272
날라간
##케이뱅크
보증인
채워졌
smartM
smartm
456
인천시
957
9500
90000
할까봐
5600
중소형
구구이
7412
엔지니어
이만기
7377
합계액
다녀도
오구구
429
올라와요
강남역
건설업
1991
##TECH
흐려져서
inc
최상선
사라진다
기달리
봐야겠다고
WPBKINQ
박동환
##ader
구구구구
유니온
여의도
일이만
happy
PGM
ㅜㅡㅜ
pgmld
campaign
옥수수
프록시
ETF
도약정
예금보험공사
715
855
830
ES
Fi
HTS
XP
dsr
kSB
pt
so
가다
간요
감출
강보
강항
고제
공신
공포
공희
과태
관자
관분
광신
구본
그쳐
김대
김광
꺼꾸
껴야
꼬부
꼭이
남진
남미
내림
농산
느지
는구
단원
대입
대이
대차
대는데
도생
독서
동등
될수록
두기
든다는
라스
레이스
로문
로스
마직
만가
만치
만언
말레이
맥락
메이트
명두
명변
모인
모을
모모
모비스
무진
무렵
문선
물수
미쳐서
바인
발리
배수
베너
변한
보철
보십
부근
부셔
분고
비난
사통
살려서
삼호
삼품
상조
상수
색기
생어
서영
서창
서인지
선하
선전
세료
세뇨
소설
손아
수려
수첩
수백
쉬워요
스탑
스페이스
시부
실해
실종
싸이
써먹
써왔
알가
알렸
액문
액원
약서
양대
어순
어학
언뜻
여타
여파
열자
오창석
용호
우석
원료
원스
으래요
음일
이정지
인당
잇고
자비
잔돈
재한
재량
점선
접선
정유
정입
정경
정통
졌으니
좌지
지적
지퍼
차선
천호
체자
쳬크카드
초이스
촬여
카운
콘서
클수록
타조
트위
트친
푸르
하마
하당
한경
할구
할래도
혀서
현물
호남
홀드
화시
흐음
##로이
##MB
##MAN
##조리
##다른
##ia
##위치
##마리
##어용
##ps
##수있
##리티
##그렇
##내역
##재그
##jf
##매일
##캐피탈
케이투
등록기
통화음
우선시
전환데
사진기
프로덕
한다구
303
오프라
161
만드셔
176
다니깐
이건가
플레이어
매일매일
0005
##aybook
들려야
바꿨으면
##0003
지났으면
23000
여행가
보관함
226
띄워져
401
이사장
가려져야
김선영
사오기
운동장
차례차례
##114
지켜서
제게는
하여간
제이요
설계서
7300
11020
더욱더
4300
디디이
1992
까다로워서
사라져요
박용성
미뤄질
김미영
##OME
꺼진다는
잡힌다
넘어간다구
김상오
수지구
벗겨지
갔었잖
lgu
적절히
해져요
돌아온다는
##퍼센트요
그제서야
대사관
오름차순
wifi
지그재그
transit
쉬우실
ABCP
마인드
올림픽
권혁성
출판사
##cuDP
INITECH
##angerEx
콜라보
무주택
초음파
smartMangerEx
kSBcuDP
과태료
꼬부기
말레이시아
콘서트
트위터
599
677
9100
AS
EUR
OC
can
inter
ㅇ지원
ㅏㄴ
가한
가오
가재
개서
개조
거품
건자
격리
경도
경신
고나라
구세
구가
국군
그렁
그두
그지만
기제
꺼서
끼우
끼친
나뉩
난방
남친
낱장
눈치
당고
대지
대고
대강
도산
도망
동대
동참
됩니더
두운
드만
등서
디엠
따듯
뛰어나
뜨시
라지만
레터
리도
리뷰
말투
말썽
매각
매끄럽
모로
목숨
무이
무의
문광
미혼
미장
박윤
받쳐
발굴
배제
배부
버팀
번상
벙호
부른
부속
비후
빨라서
빼놨
사네
상항
생신
서시
서신
서치
서두
서귀
선발
섣불리
설연
송서
수거
수목
숙였
숨길
슬리
시예
시급
실험
써볼
썻으면
씨름
안성희
압박
약자
어신
어수
어뇨
업상
엘리
여금
연정
예림
오라고
와주
왔다
외관
우형
월고
위암
유점
육회
으고
으믄
은자
음인
이방
이북
인신
입가
자다
자셨
잡아
재성
재재
쟎아요
전고
절당
점장
정순
정재
제서
제천
제실
주려
지등
지능
지민
직관
진화
천주
천원
청금
체용
체영
최경
최단
카도
테헤
통용
통역
특가
파주
퍼블
페도라
포천
표증
하란
한보
합니꺼
해리
행구
홍수
환후
황연
황국
흐흐
##bND
##ROME
##Nx
##la
##우편
##죄송
##다시
##하네요
##ive
##web
##od
##EC
##무원
##알겟
##맞이
##택시
##디오
##암동
##빠져
##론데
##박스
##쇼핑
케이대
감사용
이용은
드릴께
으셨으니
이자이
아래께
10015
208
206
209
실제론
전송이
인터뷰
수정안
어제께
한데도
258
253
했었을
스토리
움직였
007
0088
211
##ook
CHROME
갈아탔
돌아가셔
276
012
띄워야
지워질
틀려져서
선보인
##ert
##erv
하이닉스
하드웨어
끊긴다는
나지요
커피숍
언젠데
언젠간
어떤지를
하세오
모른다고요
이경원
주인공
11022
583
다녀왔
숙여서
1963
대행업
4100
내려간다는
KBANK
읽혀서
김해성
0049
진작에
버린다니까요
##orea
##ㅋㅋㅋㅋ
성미경
맞물려서
KbbND
##ㅇㅇㅇㅇㅇㅇㅇㅇ
미지수
실무자
여수시
광양시
과부하
토론토
##crt
서툴러서
육이오
티브이
플러그
어처구니
휴게소
내림차순
카운터
프로덕트
ㅇ지원금액
나뉩니다
버팀목
테헤란
KbbNDNx
696
835
970
AC
Branch
GJ
STE
adobe
cj
de
face
mg
pageSafer
paybook
step
te
ui
van
with
whod
ㅇ적용
ㅕㄴ
ㅛ어요
가짜
가월
가심
가름
감도
감천
감춰
강명
거말
걸림
겹칠
고해
고문
공돌이
광진구
교직원
극단
금애
급안
기예
기침
김밥
남음
논리
놨다고
눌렸
달해
달이
당직
대대
더운
더딘
덕선
도청
도재
동중
동점
돼버린
딧나요
떠버리
라규
라더니
레저
론가
르라고
른쪽
리적
리볼
리그
리후
막힙니다
만난
매진
매뉴
명품
무려
무실
무턱
묵혀
묶음
미세
발동
방편
백도
범수
범칙
보세
보경
보냄
본네
불통
블라
산아
색선
서서
서점
서나
선주
세도
섹스
손보
스컴
승락
시퍼
시체
신병
실가
실익
쓸라
아닝
안건
안착
양시
양력
어럽
어쩜
엄선
여로
여직
연우
연한
영호
오하
완수
외사
우한
원구
원진
원전
월아
유세
유연
윤인
으르
음구
음소
의원
이쯤
인안
인인
인창
인연
일거
임무
잇단
잌ㅅ
자현
자잘
작아
잡니다
장입
장병
재소
재질
적충
점오
정은
조자
조그
좋아
좌주
주성
주보
주급
주머니
준단
중서
쩜에서
차차
천성
축산
출소
출비
캐드
트랜
평창
필름
하기
하원
한울
합류
현동
혜인
홍석
화사
화려
회고
회란
휘진
휴어
흥수
##니요
##rm
##ng
##mall
##lne
##지금
##65
##는건
##나리
##ont
##까지
##대고
##kd
##출금
##체크카드
##ㄱ인
##규직
##머님
전화선
드릴라구요
동안구
예금액
관리도
납부인
지만은
에스티
151
아이이
100000
일부금
305
507
12500
나온지
어려워하
보냈으니
368
월급일
쩜이가
쩜이라도
글씨체
1770
한달지
13200
213
314
지났으니
0797
붙여진
090
2720
아버진
으셨을까
ICT
와야만
657
##ING
cvv
##ere
준다던데
##780
생겨도
xsVD
외화예금
늦춰져
떠야지
435
들여다
그치만
날아와
출자금
일어났
that
잡힌다고
1987
무난히
다닌다
이성하
부적격
연구원
Trace
갈려면은
어리버리
후원금
보조금
appear
하오나
Inc
FPMLON
가중치
고령자
wcmmcrt
##REFO
신수경
햌ㅅ는데
냉장고
jtt
##wpA
EDGE
FIREFO
이엠씨
사다리꼴
smartmanager
어수선
ㅇ적용대상
리볼빙
매뉴얼
무턱대고
범칙금
재소자
xsVDwpA
FIREFOX
444
8300
Beneficiary
IBK
LC
SN
We
credit
ux
val
ㅡㄴ
가세
가승
감해
감히
강호
강색
갖다
거조
거다
거함
걸치
게이트
겧습니다
격자
경산
경리
계서
계지
계통
고럼
곳곳
공음
공강
교차
구라
구선
구시
구륙
구해서
귀책
금후
기조
기건
긴가
긴가요
김다
김옥
꺼집니다
내만
년수
노원
놀자
니라
다우
다원
달한
달까
담날
당가
대보
대개
대에
더한
더위
더군
덕양
도증
도건
동한
두장
둿면
들었
딸랑
라임
란다
로군요
류로
막힐
망했
매직
머무
먼데
멉니까
면실
모일
무분
무척
문배
민중
바빴
박물
박마리
발라
배종
버렷
벤터
보면
본명
분아
빼내
뺄려면은
삐끗
사당
사거리
상인
서청
서쪽
서라도
선차
성고
성수
성화
성광
센데
소나
소랑
순년
쉬운데
습어
승운
승시
신요
썻는지
아를
악기
안면
앞선
애니
액아
앨범
양숙
언노
업명
에버
여게
역도
영기
오려
오와
오산시
완자
완산구
외영
요한
용동
용게
용주
우버
우승
웃기
원신
월음
월산
유요
육도
은로
은해
이터
임은
자년
자민
작명
작아지
장상
전보
전라도
절산
제했
좀더
종모
좌상
지라도
직일
진대
진규
차회
차가
청송
체미
체대
체재
춘식
충동
커트
커졌
커머
커져서
코어
코덱스
타나
텐트
투리
팔만
편이
풀어
풍차
하조
하월
한로
헤야
형아
형재
호고
호어
화랑
황도
황송
효영
훔치
휴학
##Mer
##ls
##ll
##시네
##하여
##고요
##고싶
##아리
##이라
##Sing
##오스
##pe
##공사
##스타
##습니
##센터
##센스
##픽스
등록부
금융업
에스크로
영업장
지급시
정상남
알려진
244
비상시
맞춰볼
보일까
25000
요구서
363
한다면서
올라면
178
17500
1735
퇴직자
운영비
1940
000000
등기우편
21000
날라올
227
민원인
408
정해진다
2999
잘려진
281
사라질
##INE
쩜일구
쩜일인데
0563
몰랐었
실수록
cvs
피디아
성인병
롯데시네
기다릴께
들어올지
하이픈
사오월
##ㅠㅠㅠ
325
책임질
출근길
지켜봐야
볼라면
출입구
##net
7374
의뢰서
이윤주
4250
5400
goMer
내시경
ㅇㅇㅇ
달라진다
떨어질까
1993
##rom
학습지
급격히
institution
박종은
잡힌다는
1985
7368
노래방
벗겨져서
주무세요
받아들여서
moasign
AIG
시내버스
충청북도
끝날까
##ada
대학원생
떨어진다거나
어따가
여의치
스크립팅
홍영미
쩜쩜쩜이라고
되돌아오
정태진
을래면
have
저항선
헬로우
Wire
비정규직
HOa
이보람
##meric
살펴볼게요
리부팅
더치트
transfer
새겨져
대행업체
appeared
갖다대
들었었는데
언노운
롯데시네마
544
EED
NZ
as
am
from
lms
ne
ssh
ㅇ네
ㅔ요
ㅠㅅ
가고
가를
각기
간변
갈지
갈라면
갑종
거도
거를
거처
거던
건호
걸맞
검중
겠는데
경란
경산시
고래
고론
골드
광선
광산
구상
권영
그닥
긁혔
금란
금두
급서
꺼만
꼇는데
나유
나노
난수
내력
내전
낼께요
네진
노조
놔둔
누워
니라고
다셨
다게
단안
단원구
달구
달사
달전
당혹
대아
대미
데리
도데
도형
도봉
동지
동할
두로
뒀었
득점
들였
등아
라라
래미
로워
로썬
리자
마요
마포
마히
만도
만진
맞은
매력
명찰
모세
모란
무성
무너지
문성
미스터
반이
방아
버들
법안
변했
봉인
봣습니다
부아
부나
비진
빠듯
사금
사문
사옥
삼가
상통
섞이
선진
성유
세시
소환
소폭
수반
시반
실인
실리
실테
아란
아껴
안아
양반
양평
양손
어깨
언성
얼려
엔피
엘진
여럿
역증
연고
연화
였으므로
예과
오잉
요상
우지
웃긴
유인
유화
으어
을께
의식
이혜
이베
임도
입맛
자서
자매
자니까
자는데
작장
장도
장례
저대로
적입
적히
전희
점인
접해
접어
정채
정대성
제구
제경
조강
조헌
주대
주희
주춤
중원구
증세
증발
짓거리
쩜만
채식
처이
천시
체여
초청
초보
최은
추우
커밍
크라
클립
태평
퇴전
튕긴
트인
파티
판가
팔고
하년
한요
한은
한문
한양
항의
해줍
허이
헤드
형상
홍문
홍천
화순
확충
환인
회우
회인
휴기
##즈업
##files
##form
##ams
##지가
##41
##혀서
##EE
##자동
##ue
##ter
##ge
##개월
##그날
##처럼
##모습
##모바
##차이즈
##든요
##습닏
##멘트
##투자
##덕구
##ㅅㅇ
##젝트
##킵니다
케이에스
는데다
그래이
기다려줘
내용증명
관리기
연락기
오늘날
발송전
드렸으니
##카드로
따라갔
153
프로젝트
아래위
1008
2050
2042
판매처
이동복
변동성
506
187
할인점
돼야죠
지정은
ㅜㅜ네
임대업
이건데
1976
003
1360
돌아다니
들으며
어떠실까
정해져야
147
238
해놨으니
자기앞
보여야만
##arp
402
까진지
옮겨요
채워지
이루어져서
우물가
##rst
1204
이뤄져
을지라도
535
349
그날그날
512
국적기
821
소용없
이뤄지면
언론사
가까워졌
492
동작구
모를까
잠겨져
실소득
자가용
부러진
##end
옮긴다는
2016032
날아온
큰일나
구부려서
무지무지
김성수
문수빈
변함없이
어째야
쩜삼이요
##안되요
역삼각형
가나다순
바란다
XXX
보라색
순천시
##ㅡㅡㅡㅡㅡㅡㅡㅡ
HKD
드라고요
버벅거리
비정상
성희롱
쩜세개
프랜차이즈
김아라
정사각형
클로즈업
Programfiles
valid
덕양구
무분별
박물관
도데체
맞은편
##모바일
396
655
682
CJ
Files
Key
Step
at
ach
by
cm
dl
jsp
px
pass
pbk
qu
ubi
vpay
ㅇㅓ
ㅓ요
ㅡ네
가운
가합
가일
가야지
간경
거레
걸이
겠지
결해
고였
고전
고추
공업
과열
권정
귀가
금소
금유
급사
급고
긍금
기증
김서
김홍
끝낼
끼워서
납품
내볼
내원
내약
넥슨
녹이
농촌
느꼈
는걸요
단자
단단
담부
대추
도란
도네
동용
동체
동글
됫는데요
든게
들을
디시
랬는
레드
려야
록음
리기
리트
리브
릭터
마비
만세
매크로
맥도
멈춥
모순
모조리
무로
묶였
뭐뭐
미시
미확
바우
반나
반액
반등
발목
방성
방분
백자
벗어난
벽산
병자
보미
보태
봤으나
부요
부에
분별
비비
빈자
빌링
빠이
사십
산간
서려
설한
성가
성식
세경
소금
소세
송기
송탄
수제
수주
습관
습나
신라
신인
신영
신혼
심리
싱글
아람
아리
안서
액상
액등
야겠다
어스
엄밀
엇거든
엌덯
여다
여한
연대
연리
영락
예년
예월
오승
온전히
올르
우로
우정
원청
이카
이병
이불
인전
인일
인민
인즉
입회
입죠
자긴
장로
장한
장주
장후
재상
재활
저래
적음
전회
전다
전쟁
정요
정거
정희
제왕
졌으니까
주원
줄줄
중공
중일
진데
진의
집들이
짼데
쩜영
처해서
천수
체험
총선
최다
출말
출목
출또
치기
카스
컨텐츠
코픽스
타지
타실
탈까
태공
택서
판사
페카
페에
포지
포장
표선
피탈
한음
한네
할머님
항원
항균
해해
해년
허비
현학
혜주
효정
후요
##nd
##ae
##line
##61
##ie
##해주세요
##경우
##yH
##UNE
##일구
##퍼스
##CSC
##날드
##피자
##피일
##재해
##재발급
##LT
##메인
##평가
##쁩니다
지금껏
번호판
조금씩
이자부
전환지
으실지
아이스
프로그래
정지기
알려서
자유로이
으니께
내려놨
1021
이어져
불러다
불러왔
예약금
신다면서요
117
309
멈춰진
508
189
order
193
플레이스
0014
나눠진
들으라고
311
는다니까
엑스레이
바뀐게
2740
015
704
406
291
일공일구
채워진
##ARE
289
2880
031
명함판
335
353
자연재해
328
종신형
758
움직여야
348
상계동
온다니까
이아이
생겨나
실까봐
##202
맞출려고
피시방
아프리카
nate
465
464
765
581
소린데
빠를수록
##ity
495
늦춰진
난다거나
6300
밝혀야
숨겨진
망가진
쌓인다
##sto
MOASIGN
결산일
한대서
동인도
사라진다는
어두워졌
Mobile
0041
어째서
받아들여야
김명수
경화기
열릴까
SGD
벌어져
capate
커질수록
신동엽
아메리카노
020100
거시기
소수점
mobileweb
point
으으음
어떠신지요
화물차
차일피일
CMMNOTV
CHARS
GBP
STEP
걸림돌
김옥순
커머스
##merica
NZD
맥도날드
멈춥니다
바우처
한네트
##UNES
678
777
KIS
PBK
TR
Tq
XCX
ap
aeo
dau
fre
font
kpay
ma
mbr
mSing
nH
su
we
ㅛㅇ
간간
감이
강행
강철
강윤
건조
결함
결체
경은
경황
고명
고랑
고재
고창
공세
공예
공여
관절
구해야
군포시
권하
긁힌
금망
급락
기세
기중
김소
꼬인
나주
남경
내들
냅둬
논산
누가요
늘일
능시
니담
다루
단시간
달월
담석
대철
던져
도계
도메인
디아
디파
따졌
딸린
라만
래라
런가
련지
로비
만우
맡길
맺혀
며칟
명소
무너
문다
문정
박한
반도
발매
발굽
백구
백주
백과
백건
백억
변기
별일
보드
보임
보공
부하
부어
북어
분가
불일
불충
뷰어
비기
빨랑
빵집
사어
사보
산세
산포
상요
서너
석유
선박
설지
성서
세어
손톱
수강
수산
수석
스지
시동
시준
시사
시환
시킵니다
신행
신음
실용
실라면
썻습니다
아세
아두
아라고
암해
암기
압축
액제
약세
양구
어다
업주
엔아이
여셔
역조
영웅
예해
예재
온게
요로
용경
우니
울주
원기
월시
월자
유해
유태
으오
으까요
은장
을러
음면
응인
이출
이빨
이베이
익산시
인문
인경
인비
인스
일예
일식
임실
입근
입단
입때
자진
잠수
잠재
저당
절이
정나
정대
정에
제회
조호
종륜
주하
주당
주형
준법
중랑
중견
즉각
지계
지필
지통
지향
진현
진향
진흥
집주
쩜요
차아
차진
차세대
참치
창호
철저히
체성
체경
체당
최자
최영
취했
칠전
카이
켜져야
코마스
클레임
탈려고
티요
페어
편물
편차
평범
표제
하사
한월
할고
할런지
해란
행등
햏는데
허지
허걱
협상
혜진
호정
화도
화아
환어
황로
효천
후회
##니스
##bank
##Num
##거같
##68
##하니
##ian
##48
##상담
##Sh
##오늘
##Ec
##말이
##UE
##UX
##일리
##ks
##모르
##Card
##저쩌
##연결
##판매
##엑스
##바바
##풀이
##놓고
##덜룩
##쿤요
그러구
다시금
거래원
문자면
이상만
시간제한
회원권
발송인
그런대
1520
아이시
신다니까
10016
개인사
2095
1024
한다니까
양도인
이동산
이동후
501
1240
254
##MSUNG
ㅠㅠ감사
ㅠㅠ감사합니다
빠져나갈
할라구
바탕색
200000
1978
중앙일보
0012
217
CHO
comp
네모나
발행처
0266
2710
##aring
701
피로도
SAMSUNG
인사말
337
667
들어올려
자연면
324
중국어
준다며
##inq
스러웠
오공이
축하단
빈도수
넘어갈까
세워놨
맞출려
7400
드립다
99000
8200
나으니까
4600
민영화
##leCard
425
쓰여서
건건히
알리바바
6200
4350
배정만
양수인
경영진
20160114
경상도
Moasign
늘어납니다
골프장
래면은
rece
시끄러워서
어쩐다
고성군
가서도
치우쳐
대사전
박정인
영등포
ITUNES
ㅠㅠㅠㅠㅠㅠㅠ
주어진
차익금
트래블
스테이션
얼룩덜룩
pinNum
겠다라는
강진군
##SCAP
회산데
내려놔야
당구장
20160159
##그렇군요
아버진데
판가름
해줍니다
20160328
미확정
정거장
KISSCAP
TqEc
XCXyH
daum
mSingleCard
nHM
며칟날
##UXc
TqEcUXc
419
412
555
786
815
9700
AF
BR
BIC
Can
KIM
LA
Max
WU
but
mms
see
가이요
갑자
강기
강민
갠가요
건고
건어
건다는
경진
계명
고사
고파
과일
구했
구역
국전
그새
그으면
글피
금서
금했
급금
급급
기경
긴지
김나
꿧어요
나경
나루
납후
내나
내재
너트
네영
노가다
농구
놓여
늡니다
니아
니어
다릅
다일
달동
담원
당경
대림
댄다고
더해
데상
데일리
도원
도스
돈아
돌파
돕니다
동조
동신
동고
동차
동급
동종
되사
된장
됫엇
두이
두자
든단
등고
디폴
따구
따닥
떠오
뛰어
띄웠
라에
리시
린지
마고
마어
마셔야
말린
모회사
목장
무게
문방
미음
미생
미남
미족
바뀜
박살
박지영
받자
방세
배서
배이
뱡크
버시
버림
번쩍
법이
베이지
병신
보이지
복선
봐줄
부명
부사
부원
부딪
분사
불상
블록
비형
비칠
비웠
빙고
사여
사온
사절
상음
상반
상주시
서임
서문
서보
서대
서월
서북구
선인
세서
세진
세욧
세웠
소실
손진
손목
수이
수탁
순하
스키
스킵
스팀
시프트
신년
신불
심수
썻는데요
아다
아림
아싸
안네
알라
알린
앞발
애용
액신
액외
양보
어대
어네
엄니
엄정
여정
역전
연오
연어
열립
영가
영실
영덕
예대
예의
오포
오분
오연
오엘
오렌
오키
옥련
요제
용아
유호
유령
유재
육영
은도
이을
인단
임경
입안
자물
자에
자석
자빠져
작전
잔뜩
장금
장요
장보
장바
재하
재수
저하
저음
점고
점자
졌으면
조끔
종철
종양
주마
주리
주웠
중시
지저
진전
징구
쩜고
쩜한
차리
착륙
창피
청기
체전
촉직
총결
최지
칭하
카두
태엽
퇴방
편드
편도
폐가
포합
하트
하의
합동
합성
항기
해민
헙니다
현행
현영
홍진
화게
환주
황성
황보
후인
##110
##라이드
##ru
##ress
##Re
##준다
##mf
##mit
##합니까
##은데요
##iz
##ial
##이용
##eong
##dl
##어마
##수잇
##타항공
##보다
##네여
##린트
##근데
##ke
##kjf
##에는
##AB
##습니당
##햇는데
##OP
##없나요
##들어
##닌다
##닙니다
##특별
그러니
이용문
이용현
이용만
정보라
그래픽
기다립니다
그럼요
해지율
페이퍼
뒷면도
1005
정지해
개인차
개인택시
알려졌
불가해
올려진
시작점
유지비
맞춰도
이동도
304
넘어져
이라면
나올려면
300000
시중금리
빠져나왔
부동산업
1688
1620
1988
1975
알아내
0033
218
313
319
나이키
는다고요
2323
##ana
078
들어갈라고
0280
279
27000
나간다면
어떡해
266
26000
286
잊어버림
어딨나
가정집
856
573
336
쩜사가
060
##107
넘어간다면
323
빌려야
##ink
아시나
시킨다는
345
check
565
569
제주항
드실까요
이행기
##safe
##ney
테크놀러지
맡겨야
공시지가
523
5200
##lent
집행관
4466
을라는데
김영은
풀릴지
파이낸스
exe
7900
옮긴다
418
414
9200
확장자
김성근
아울렛
7800
아신다고
ibk
주무셨
의문점
이스타항공
##uth
투입구
시어머니
건전지
시민증
중학생
기지국
오디오
aba
권선구
됩ㄴ다
어마어마
포스트잇
망설이
모빌리티
재건축
현주소
스탠드
호랑이
무의미
##알겟습니다
둿면에
ㅠㅅㅠ
실리콘
KeySh
pbkinq
반나절
인즉슨
중공업
프로그래머
##stomer
중랑구
WUkjf
다릅니까
데상트
디폴트
문방구
오렌지
자물쇠
장바구니
KeySharp
WUkjfk
388
778
CC
Error
ELT
KIA
LOC
NU
PR
Please
VS
gana
oTP
pm
xr
ㅂ니다
ㅇㄱ
ㅇㅖ
ㅇ코드
ㅛㅓ
ㅛ나요
ㅜ알
가간
각가
갈립니다
갑상
거등
거론
건아
결단
겸사
경일
고건
공하
공산
광진
광일
교토
구기
국수
굼액
규회
규계
규찬
금사
금안
금할
금오
금형
급수
긴요
꼬마
꼭지
나주시
난주
날이
날린
남정
내미
노크
노라
노령
놔주
놧거든요
늗데
다해
단비
닫기
달했
담액
당인
당당
대성
대경
대현
댄다는
도분
도차
됫구요
됫는대
들오
딴소리
란가
란시
러서
렇쿤요
로지
로운데
루어
른데
리서
마실
마칠
막무
망할
맞서
면해
명숙
명백
무고
물형
바시
바짝
박유
박영
박기
발달
밤중
백곡
버나
버블
번서
범호
보거
복시
봣는데요
봣을때
북아
분어
분배
붙잡
브랜
비급
비읍
비엠
비디오
빵빵
뺄까
사갈
사비
사달
산료
삼당
상지
상건
서리
서발
서광
석기
섞여
설건
세터
소니까
속합니다
손자
솔로
쇄도
수아
수대
수저
숙제
시크
시미
시여
시댁
신서
쓸까
씌웠
아원
알송
액자
앵무
약할
약값
엔진
여구
여과
역중
연상
엽자
영양
온도
와라
완치
왜구
외인
용정
우찌
원님
월서
윤서
윤선
으래
을런지
음서
응명
응지
응한
이년
이웃
인화
일대
있는
장다
장군
재지
재진
재대로
저큼
적응
전직
점어
정두
제동
제면
제만
조원
주운
주류
주월
주최
준가
중가
중아
줫는데
즉석
즐겁
지함
지켰
지거나
직도
진통
진열
질러
쪽쪽
차서
차시
착하
처하
천중
청사
체육
초등학
총가
총아
총수
최강
치예
치만
크리
통징
통정
통통
퇴이
특례
파파
판별
팔로
팔려
팽크
페인
평안
푸른
품안
품절
플리
핀다
핬는데
항이
해이
해기
행직
허밍
헌자
헬스
혹독
홍정
황소
회동
회건
후음
훌쩍
##28
##ME
##nb
##조회
##가리
##가내
##fo
##mo
##지오
##하자
##궁금
##해주
##할지
##wj
##문의
##Id
##ET
##port
##무휴
##공인
##ud
##톡스
##러져서
##갔다
##국수
##능력
##민가
##슬기
케이비
이용기
전화지
전화료
문자열
관리사
는지도
더라두요
이런지
어려운지
신다구
기준치
1000000
나와라
통신부
개인어
2040
245
결과물
바라본
1050
한다니
인터페이스
바이스
이동한
307
505
1230
183
1811
##5500
그럴지
한지고
가져요
가져야
ㅠㅠㅜ
ㅠㅠ넵
이유로
ktx
1986
경쟁사
근무일
0002
등기소
보낸다면
서울대
서울특별
배우잔
갈아탄
유심히
##and
##any
이슬이
들어갈까
부산진구
최신형
지워도
돌리지
일본인
교보생명
건드려도
틀린다
452
857
기다릴까
665
는대여
파이팅
어딘데요
##880
주문건
스러울
75000
대형주
383
가까우니까
514
사공일
끊겨져
간다는데
01010
API
APEC
이뤄지게
합쳐져
647
ㅠㅜㅜ
위함입니다
출장소
432
지서가
해준다면
놔둬야
726
795
완벽히
나빠질
지워져요
까다로우
##ㅜㅜㅜㅜ
미뤄서
감시인
낮춰줄
영통구
코스닥
1983
895
빌렸으면
부적절
제니스
갈려는
##unes
##ference
도이나
조형미
클라이
돌려준다
커뮤니티
바란다고
caplne
wire
괜찬으
쩜쩜쩜이라는
외가서
연중무휴
헬로모바일
FPM
계양구
The
고동색
동남구
며느리
며느님
신림동
성기기
쩜육사
벗어났
겹친다면
이문구
김광원
푸르지오
internet
긴가민가
##ㅅㅇㅅㅇ
ubikey
간간히
반도체
불충분
더해져
뛰어넘
상반신
막무가내
앵무새
초등학생
서울특별시
322
411
496
713
Name
Oy
SB
SIGN
Ub
WI
iP
ipt
ky
oT
op
rf
sec
xx
xxx
①■
가면
간은
갈릭
감결
개체
거슬
건는
것으로
결시
결의
경아
경차
경매
고면
고음
고러
고두
공조
공권
과자
과제
구름
구합니다
국사
권철
균요
금진
급명
급성
급비
급창
급박
기학
김문
김승
까나리
꼼수
나비
남호
남대문
납금
납음
노상
논다
놔둘
닙니당
다보
단도
단요
단장
당선
당게
대동
대론데
대놓고
도오
도리
돌린
동수
되야지
됫다는
됫으면
두서
두려
등금
등이
디만
뜨거
라이팅
랭킹
러니
런던
례지
름이
리필
맀나요
마나
막막
말귀
말하자
메라
면하
모션
모친
모텔
목도
무식
무심
문항
미나
미어
미접
미싱
밑단
바른
박이
박대
반기
배자
뱅글
번한
번음
법어
벤드
변견
병사
보사
복결
봉수
봐선
분일
불렀
비취
비쳐서
사종
사슬
삼익
상정
상면
상부
생이
서운
서고
서자
서산
서일
선신
선이
선배
설비
성한
세내
세울
소서
소도
소동
소기
손대
송고
수년
수형
숙하
쉼표
스코
슬라이드
승선
승산
시수
시뮬
신진
신약
신축
실력
심신
쌓일
씌우
아레
아과
안나
안개
알켜
암것
애도
애인
약이
양주
양주시
얹혀
엄중
업태
여려
여월
역량
열고
염상
영관
예쁘
오세
와지
왠지
외거
외모
외교
우유
우상
우왕
원경
원식
원론
유청
유익
육예
음아
응기
이고
이봐
이프로
익익
인보
인등
일리
일류
잏나요
자선
자은
자번
재공
재방
재능
재투자
저위
저버리
적림
전사
전창
전역
전학
접니다
제문
제개
조지
종수
주터
주석
주봉
줄라고
중권
증산
지끔
지명
지현
직무
진점
짜인
쩜가
쩜다
차압
차입금
찬성
천서
천선
천억
체코
체바
쳬한도
초경
총지
출라
출출
칩니다
카요
카노
커스
켜진
클리
키오스
탈토
택한
토끼
트이
파업
판도
판독
팔음
펌웨어
편찮
피우
하주
하군
한어
할거
합네
항가
해놔서
행진
허상
헤매
현관
협업
호신
호칭
환지
후지
훌륭
휴지
흔히
희원
##zn
##Ra
##PM
##act
##lr
##소싱
##시고
##io
##isa
##문에
##어찌
##어디
##자꾸
##타임
##UQ
##ub
##uRa
##윤정
##ku
##CUE
##당초
##AM
##ㅏㅏ
##남동
##언트
##달라
##못해
##된다고
##속인
##투리
##JU
##셔서
##겸사
은행장
전화비
그래프
기다린다
보내오
나오지
따라야
신다는데
스피드
정지일
다가가
체한다
부서져서
152211
알려져서
2470
인지도
10500
10800
된다는데
사고팔
달라야
한테로
겁니까요
내일모레
판매업
308
수신료
12100
256
##IST
가려야
GSP
빨리빨리
올라옵니다
메모아
17400
법인세
지방청
목표일
도시락
1971
214
상승세
버렸으면
현대캐피탈
머리띠
ISS
붙여야
시행령
기울일
벤트라
221
##ows
##own
268
264
405
605
나갈려고
아닐지
옮겨진
자산관리
정윤성
29000
어찌해
285
654
넉넉잡
인사이트
572
쩜사프로
쩜사오요
어딘데
351
357
운동부
생길지
384
세상에
가르쳐줘
5100
민주당
481
484
스타벅
브라질
줄여도
떨어졌었
아웃소싱
물어봐요
461
##learing
394
더욱이
을라구요
CAPCUE
6400
ㅇㅇㅇㅇ
그라운드
빌라이
접근권
나간다거나
사신다고
부러지
김도연
본다거나
지워진다는
흐려져
빠질까요
thank
this
공연장
심해질
1956
1954
내릴까요
수리비
휴무일
둘려고요
플랜트
둘째치
reader
디피씨
합해져서
봐야겠습니다
회계사
주고받
강릉시
##com
벌어졌
NPay
아셔서
아셔도
센트럴
배상금
성동구
##hone
##oriz
스테이크
##베이터
자취방
20160274
비서실
비지니스
내놔야
자살자
SmartManagerEX
삼일절
지킴이
어떠신가
피상속인
inisafe
포인터
도미노피자
스카이프
가라앉히
FRUQ
##MBER
OCI
서귀포시
엘리베이터
왔다갔다
테헤란로
하기는
권영만
##amsung
울주군
##ABLE
##uthoriz
거등요
겸사겸사
클라이언트
OyuRa
oTp
공권력
말하자면
시뮬레이션
15221155
FRUQF
OyuRaRe
436
718
813
875
816
922
924
DE
GM
Kku
St
SD
ar
ai
det
fi
if
kim
ㅏㅇ
가나
가공
가해서
간판
간식
개성
개점
거보
건드릴
걸친
걸으면
검소
결로
결방
경증
경봉
고구
고한
고타
고집
고모
고스
공화
관인
관부
광인
구겨
구강
구멍
그중
극장
금게
금보
기선
기법
김찬
껀으로
꼭꼭
꼼짝
끈기
끝장
나물
나원
나아가
낚시
난적
난신
남짓
납시
낭패
노형
놓쳐
뇽하세요
능동
능자
니미
다더니
단행
달기
대서요
댄다
데모
도운
도진
도여
도쿄
동경
됏다는
됏네요
되풀이
득수
들일
따져야
때리
땜시
뜹니당
랑가
레일
로구
리신
마카
마당
만안
만적
만주
만두
말리
말뜻
말짱
망자
맡긴
매탄
메꾸
메꿔
면보
명구
명고
명란
모루
목정
몰아
무산
무겁
무거운
문대
문종
민민
밀양
바야
바오
반해
발가락
번건
범선
변주
별면
병실
복호
볼테
봉사
봣을
봣더니
분서
분음
분식
분량
비한
비음
비뚤
빠꾸
뺀다고
사우
사미
사류
사캐
산심
살인
살림
삼양
상했
새끼
샌드
생애
서비
선고
성행
성별
세중
세건
소고
소경
소대
소독
송조
수중
수송
수개월
습닌다
시제
시랑
신반
신흥
실금
실점
실원
십월
쌍용
썻는대
쓰인
쓸지
씁니까
아는
안구
안강
앖나요
액셀
어함
어창
어땠
에구
여덞
역대
연비
연두
영찬
예선
예담
오요
오면
오메
오톤
오마이
올가
왔으니
왤케
외시
요오
용구
우주
웍스
원예
원다
원입
월은
월전
유난
윤기
은디
은다고
응고
의서
이노
이페
이쁘
이륙
일딴
임세
임광
입고
자우
자임
자화
자축
장용
장전
장흥
재사
재벌
재통
저상
적다
적결
적격
전거
전데
전개
정내
제차
조규
종문
좌조
주서
주음
주란
주방
준공
증한
증전
지행
지료
지간
직권
진보
진급
진연
차비
찬찬
창아
창화
천차
청음
체우
체두
초원
총재
쵤영
출제
출주
출번
취재
츌금
치알
칠곡
카로
칼국수
코멘트
크림
클린
타시
타오
타향
탈출
태일
태원
테이지
튀어나
트립
티나
팅기
퍼블릭
편했
포한
포토
포린트
하소연
한고
한때
한답니다
할러
함일
함꼐
항암
해명
해성
해미
행장
허고
허무
헌재
헤서
현안
호도
호만
호스
홍란
환신
황윤
회관
후로
후월
후당
훈자
휴이
흘러가
흡기
##zon
##bnb
##가여
##lic
##합니당
##하라
##하려
##고나
##ime
##ire
##355
##이버
##이리
##셨으면
##dy
##om
##oc
##어진
##어져서
##EO
##타기
##제리
##ul
##uy
##리오
##런스
##눈데
##실적
##있는데
##르륵
##XEB
##AG
##남북
##각각
##바라
##바지
##된다
##뱅글
##셔널
##봤었
##됩니다
##맘대로
이용동
이제이
이제껏
자동증
그러면요
기다려라
금융가
보내온
된다든가
요청안
지만서
하나님
네이라
더라는
사진첩
보험자
아까워서
얼마간
영업용
10010
정지도
정지상
##220
2030
249
대한항공
이어져서
담보물
문제기
11500
필수품
돌려져
돌려줬
502
전산실
252
362
가장자리
그랬나
걸려버렸
증여세
두드려도
다를까요
예상일
1930
1974
기대감
움직입니다
소리야
##ood
318
상승기
1496
오랫만
나타남
231
##ance
025
돌아가시
기울어져
011
019
705
들어간다면
지워요
CVV
올릴까
오오네
어찌어찌
288
282
드신다는
잊어버릴
물어봤었
578
040000
662
보상금
352
377
3250
고시원
버린단
537
342
343
무시로
386
제주은행
가져와요
테크노
가려진다
741
7485
7425
간다거나
995
아웃백
깨져요
9400
모른다네
442
598
591
빠를까
1405
##ANY
498
546
어이고
이리이리
건설사
629
627
986
들여서
비싼데
onion
only
증거금
inform
해줘야지
SPC
는디요
무지개
1014
내릴까
쳐야지
나아질
빨라질
빨라야
모자란다
파트너십
requ
91000
##pointcard
생긴다거나
보건소
달서구
이십사기
황진성
플레이트
12220
금정구
이육사
state
건축물
5223
경계선
이정기
Institution
저항권
렇군요ㅠ
렇군요ㅠㅠ
20160275
동서남북
번역기
플랫폼
20160265
##irbnb
MARKANY
8777
국방부
억지로
##ㄻㄴㅇ
happypointcard
##죄송합니다
ACS
트랜스
튕긴다
XXXX
quot
들을려고
인스턴트
갑상선
북아메리카
뱅글뱅글
사고팔고
##uthorization
KkuXEB
고스란히
복호화
유난히
KkuXEBq
616
724
888
934
BN
ER
JS
LEE
RO
SU
VV
airbnb
bo
cid
db
electronic
max
pw
please
ss
will
ㅇ상품
ㅖ좌
ㅛㅔ
ㅜ안
가트
가벼
가담
가셨으면
각이
간부
갇힌
갈일
갈비
갈께
감성
감자
감염
객체
거우
거려서
걱어
건디
겠죠
결사
결지
경후
고을
고란
고연
골탕
공탁
공매
과서
관람
교류
군복
규리
그니
그레이드
그든요
금단
급용
기고
기진
기음
기를
기표
기껏
긴장
김가
김남
깔렸
꼬옥
나사
나나
나빴
낭요
낮췄
내진
내제
내실
냐이
네비
녹차
논현동
놨어야
눌림
눠서
느닷
는군
닙니다
다자
다대
다발
다단
다대요
단문
단절
달대
담청
답문
당현
당문자
대력
대물
대수
대통
더럽
데려
도려
동어
동강
동와
동주
동파
된고
됫을
됫던
두루
드세
드놓
드는데
든가요
들러
등요
떨림
뜹니
라죠
럿어요
럿더니
마큼
만상
만났
말장
맡겼
매세
머그
멘션
명다
목공
목걸이
몽키
무요
무어
무에
무섭
물통
물체
미션
미추
민선
바지
발곡
배기
백문
버노
번화
범지
범자
법대
베페
변명
복불
볼랍니다
봉천동
봣네요
부증
부경
부랴
분노
분장
붉은색
브리지
비인
빙글
사관
사제
사보험
삼환
상진
상보
상각
상응
생선
생리
선할
선재
성하
성은
성학
성탄
세력
세염
세외
소아
소임
소희
소립니까
송어
수구
수임
수율
수렴
스텔
스톨
승수
시든
신성
실신
실음
심재
싳어요
썻고
썻거든요
아크
아보
아쿠
아반
알알
압력
애정
액세스
양동
어울
어떵
어습니다
얼렁
역상
연력
연진
연식
연립
열차
열쇠
영준
영세
영여
영산
예장
오발
오스
오탈
온거
와드
와가
왜지
외면
용의
용내
우셨
우재
우세요
워치
원로
원면
원호
원월
원당
원급
원연
웟는데
유류
유방
유에
유종
육상
으되
이럽
이삼
이심
이큐
인임
인오
인격
일관
잇몸
자여
자실
자급
자국
작금
잡아가
장어
재가
저구
저오
저자
적시
적리
전장
전애
절도
정점
정본
제예
제오
제호
조영
조간
종량
주워
주먹
죽이
죽전
줍니까
중장
즐기
증강
지직
지치
지폐
직시
직진
진에
질지
짜장
찮아
창출
채단
처할
처방
척하
청진
체그
체비
쳐다
최유
최정
추려
출회
출방
충재
취서
치한
친하
친동생
카페이
케크
코코
코더
타고
터진
토근
통도
퉁신
패기
페스
포라
포명
포수
푸름
풀렀
품은
피정
피나
피했
핀트
필드
필기
필히
하자
하후
한나
한했
합법
핮니당
해치
해맑
행걸
향기
햬택
형가
형안
호란
호변
홈쇼핑
홍미
화어
환용
환식
황정
황강
회피
후진
흥덕구
희정
##카라
##드린
##bc
##동글
##fun
##소시
##고루
##43
##한데
##with
##eon
##orl
##ote
##ETP
##pal
##수고
##ya
##공단
##ure
##th
##부담
##십리
##kr
##빙글
##퍼런스
##뻐서
##숙고
##혜택
##더블
##더군요
##었어요
##AS
##식증
##티피
##배로
##WB
##jd
##표지
##VO
##답변
##잘못
##둬야
이용화
전화로
금액란
그럼서
메뉴판
##카드는
네이처
OTT
이런가요
에스원
1516
아이엘
심사숙고
송금영
10012
얼굴형
천만에
정지이
다가서
247
내려져
1090
1070
스마트카드
올려달라
수정구
이미진
반사기
1160
판매전
넘어온
넘어감
503
저축액
비춰져
어려워져
어려워져서
생각났
녹음도
가려버렸
쇼핑물
방문자
3000000
보호자
쩜이퍼센트요
최고선
ㅠㅠ아
ㅠㅠ알겠습니다
면제세
1942
##레이터
돌아다
0004
2150
떨어집니다
어떠케
안경점
기술자
013
0132
806
##arg
kbankwith
229
2275
604
금지명령
정해진다는
나갈려면
에프에이
찾아갔
293
채워질
잘려도
구글링
틀려져
287
659
1190
085
1202
338
339
무선랜
666
그런가보다
자연광
가르치
준다니까
생겼으면
당한다고
지켜도
나눠져요
ㅡㅡㅡ
올라간다면
옮길까
487
제이유
##무소식
떄문입니다
737
맡겨도
진다던
진다든가
949
825
525
##lek
감정가
세탁기
마그넷
그려져서
미수금
443
584
39000
1408
1404
424
##ite
494
까만색
642
ㅠㅜㅠ
1962
맞춰야지
유자명
634
통행권
합병증
6800
아이템베이
날아간
스물네
all
땡땡이
사육사
##000000
돌아간다는
너그러운
Apple
지구전
심해져서
OOOOOOOOO
891
7842
연구실
9104
골프공
refun
22020
수영구
기다린다고
동창회
서초동
##ounting
전상태
UBIK
기보단
이현정
이선영
1327
메이커
괜찬습니다
ㅜㅜㅜㅜㅜ
그란데
울려요
늘린다고
20160276
Reference
권선영
활발히
끌어와
program
campid
해운대구
하다못해
##ormal
MARKETP
오조네
스프레이
못써요
소매업
마찬가진데요
지지난달
응급실
어학원
##ervice
서서히
조그맣
들여다보
머무르
커트라인
사금융
동글동글
알라딘
iptv
커스텀
detail
VVIP
말장난
미추홀
복불복
빙글빙글
이럽니다
kbankwithu
MARKETPOINT
355
413
699
672
612
6100
755
712
775
7100
842
833
944
919
95500
America
BE
BX
Bc
Fed
FED
KD
NSP
Rounting
Swift
Samsung
TT
dk
dec
hel
jp
li
mall
normal
sr
tim
test
vv
ㅇ아
ㅇㅎ
ㅑ요
ㅔ네
ㅡ알겠습니다
ㅡㅂ니다
가위
가타
가설
가당
가연
가단
간결
갈려서
감옥
강압
개지
거란
거원
거번
거니깐
거식증
건상
게지
겠다는
경중
경수
경숙
계부
고상
고까
고등
고른
골고루
곱해
관석
괴롭
국선
국면
국할
굴려
권이
권기
귀차
귱금
그렀
근교
금동
금장
긍액
기십
기혼
기번
긴해서
김원
까칠
꼬리
꿔야
끊임
끌까요
나염
나건
난소
날수
내세
내계
내달
내건
네신
놀리
높히
놧습니다
놨나
뇌졸
누러
눕혀
는겨
는개
능거
니바
니께
다상
다각
단상
답신
답글
당도
당직자
대치
던디
덜한
도외
도에이
됫었는데
두배로
둔화
뒷문
들인
들고나
딧는지
떠갔
떴으면
랑이
래스
러드
류어
리드
리까
리식
림상
마쳐
막장
말거
머시
먹이
먹혔
명사
명보
명판
모금
모직
모간
모발
목욕
몬지
몹시
무거
물정
물타기
미당
미향
밀릴
밑지
바루
바가지
박서
박경
반입
방콕
방영
방범
배급
백운
백안
범행
변체
변심
병기
보령
보톡스
볼록
부피
부칠
분대
불행
불쌍
비속
뽑혀
쁘라스
사조
사형
사체
사능
사인지
산서
산가
산거
산시
산점
산원
삼입
상번
색시
서술
섞여서
선서
선입
선문
선제
성환
세납
세고
세환
센스
소윤
소극
속서
송가
수서
순관
순시
순전히
스파
스웨
승소
시소
시적
시커
시들
식적
식비
신구
신이
신번
실하
실텐데
써졌
썻을때
썽요
쓰지
아해
아미
아체
안영
안방
안짝
알약
알고리
앱니다
어간
어긋
어띃
언자
엇고
여겨
여심
여걸
역명
역산
연람
연예
연해
연치
연당
열한
영재
옆모습
예로
예우
예당
오성
오자
오차
오과
오달
온건
올인
옶나요
왕십리
외람
외일
요렇
용용
우롱
우민
우울
운오
원위치
월기
위란
유철
육비
율과
으랴
은선
음다
읍니까
의증
의보
이세
이려
이형
이온
이바
이언
이콘
이문자
익상
인들
일점
입춘
자장
자투리
잠자
장동
장진
장창
재요
재세
재인
재주
저적
저네
전과
절망
젊음
정직
정게
정호
정실
정욕
젠장
조리
족인
존스
좀과
좀처럼
좌중
주목
주빈
주르륵
줄임
중만
중규
중환
지다
지당
지엔
지킬
지혈
진액
찌이
차곡
처인
청인
체사
체관
체목
체트
쳐봐도
초요
초인
초월
충성
충무
치명
치신
치어
캠퍼스
커진
커녕
컨소시
클까요
타정
타이트
탈자
템포
통고
통기
투약
튕깁니다
트롯
파고
퍼스트
페로
편번
폐경
표정
플라고
피스
필하
하명
하안
하청
하상
하노
하번
하재
하우스
학부
한구
한할
한복
할로
할게
해유
해둬야
행선
행문
행보
행비
허어
헛다리
호소
화이
환기
황자
회기
횟집
후안
훔쳐
휠라
휴명
흘린
히는데
##로그
##니아
##구구
##KW
##가드
##fpm
##우대
##납부
##적립
##지사
##갈리
##을까
##레드
##하는
##하려고
##하시면
##행위
##아서요
##나서
##나나
##os
##오나요
##EONG
##xt
##pf
##ping
##yle
##제출
##와이
##UIS
##부랴
##네임
##일단
##짜리
##트라
##볼게요
##ht
##내셔널
##허가
##번째
##설은행
##차곡
##저만
##LVO
##연장
##식장
##습ㄴ
##배상
##바다
##받으
##불가
##디다
##jh
##건가요
##건설은행
##줘야
##메이션
##박이
##ㅂㅂ
##ㅅ는데
##취소
##텐데요
##떠요
감사히
이용경
등록지
등록번호
해서일
사용주
그래미
기다려봐도
그런고
된다지
된다니깐
운전대
보험법
1540
아이참
아이에프
신고인
스피로
영업직
10019
10013
실물수
정지안
통해요
숫자기
내려진
인터내셔널
기본소득
올려졌
오른다면
1170
보일지
남겨둔
오래도록
251
1810
18200
369
따른다
16200
1633
월세계
1955
1996
한국신용
나눠야
돌아옵니다
상속세
금고기
구나아
들으려
메인보드
만든다면
2314
꺼져야
0197
808
1803
항공료
703
707
들어간단
607
옮겨져
옮겨온
채워져서
어찌합니까
조기상
283
28000
SATA
658
이야긴
454
55000
33000
3333
손해배상
##101
##ORA
356
375
32000
지도안
중국건설은행
빌려와
##ind
##info
538
5300
숙박비
무리없이
##ora
564
지켜볼
8800
518
516
음식물
힘드십니까
불법행위
그렇지만은
475
471
479
이행일
대가리
끊겨지
간다니까
알아들으
52000
소용이
##IME
텔레비
769
441
395
펼쳐질
펼쳐져서
상식선
4910
4954
645
64000
628
623
431
라이센스
675
632
paypal
payinfo
디지탈
exv
969
727
##rome
686
20160202
20160355
나빠요
나빠진
ONL
4146
일지라도
8700
925
923
돌아간다
무소득
1989
진정서
사라진다고
CMMC
1945
이루어진다고
이루어진다면
벗겨져
iban
UBUNT
성과급
늘어난다고
하늘색
빠져나간다는데
이지선
테마주
앞당길
프라임
들린다고
SGA
stb
style
아픈데
총무과
20160356
0028
오리온
정류소
4905
스테이트
종사자
이프랑
해줄지
끌어오
장안구
양천구
장경국
Thank
play
고픈데
거제시
프랜즈
RPLVO
UNABLE
보험업법
confi
차선책
ASR
이방성
##oda
text
SNS
교차로
소나무
receive
Canada
seezn
LOCATE
NUMBER
시크릿
iPhone
목도리
외교부
만안구
샌드위치
연두색
찬찬히
칠곡군
statement
가벼워
느닷없이
대통령
부랴부랴
성탄절
스텔스
종량제
refund
BXME
FEDORA
KDB
timer
스웨덴
알고리즘
차곡차곡
처인구
컨소시엄
한국신용평가
UBUNTU
RPLVOFF
478
644
611
619
836
818
913
935
971
AR
AFP
BKW
CF
EB
FW
Gm
Ip
IGN
KP
MB
NET
PX
PA
ST
XS
any
authorization
bill
ed
error
kid
one
oid
our
ps
ph
res
sy
tL
wfpm
ㅆ는데
ㅇ니
ㅇ케이뱅크
ㅛㅣ
ㅡㅠ
ㅡ알
ㅡ감사합니다
가유
가마
가말
가기
가꾸
간염
간당
간병
간암
감서
강점
강비
갚음
개면
갠데요
거상
거르
거참
거울
겅세
겅우
겉표지
겼어요
경경
경의
계라
곘습니다
고야
고진
골수
곱해서
공자
공수
공대
공효
공릉
관장
관업
관건
광한
광장
광엽
교시
교원
구과
국인
궁근
권지
권미
귀기
그딴
극복
근인
금성
금말
금산
금색
금값
기니
기소
길금
김숙
깝지만
깡통
꼇나요
꿧는데요
끄트
끝낸
나로
나테
남산
남쪽
났잖아
내명
내경
낸단
냅뒀
냐믄
넘쳐서
네로
노도
노고
노리
노노
노화
논현
농민
누설
느니
는질
능안
닉네임
닏다
다선
다립
다닙니다
단데
단발
단정지
닫힘
담가
답보
답례
대청
대춘
대창
대연
대엽
더하
덕진구
도세
도현
도돌이
돌림
동촌
동업
동쪽
됄까요
됏엇
됐으며
됫거든요
됫엇는데
두근
뒤죽
디에프
딜리
레퍼런스
려인
려두
로변
리안
리치
마킹
막내
망요
매집
머슬
멋지
면지
명료
모카
모지
모스
모잘
못사
몽골
무적
무더
무반
문도
문중
문외
문학
물증
뮤지
미워
미련
민해
밀면
바니
바아
바일
바랜
반시
반결
반각
발사
밤새
배운
뱅뱅
번원
번치
변이
변재
병아리
보래
보더
보스
본질
봉선
봉이
부료
분포
분상
분자
불요
불합
비오
비리
비원
비틀
빌린다
빙그
사적
사촌
사초
산이
살피
상선
상할
상혁
생전
생김
서은
서해
서오
서루
서란
서린
서과
서포트
석호
선돌
설사
설인
성금
성구
성질
성모
셀리
소니
소릴
소일
속기
손잡
수유
수인
수계
순식
스란
스페
스텐
승음
승호
시유
시물
시보
시전
시러
시축
신철
신화
신광
실면
실기
실과
써두
아부
아노
아차
아악
안중
알자
알통
알피
앞단
애칭
야기
약도
약해서
양면
어드
어정
어재
얼릉
에뮬
엘이
여간
역활
연라
연인
연거
연시
연보
연내
연급
연배
열린다
영입
예청
예입
예저
오어
오당
오륜
오산동
외로
요긴
요전
용준
용화
욮ㅍ
우드
우하
우산
우스
우종
웃옷
원피
월리
월과
유기
유보
유발
육군
윤소
으리
은하
을걸요
음질
음영
음봉
응도
이결
이발
이양
이한도
이겁니다
인나
인강
인허가
일면
임면
임해
임수
입진
입란
입개
입역
있이
자경
자건
자변
작하
작품
장영
장실
재조
재중
저용
저시
전출
절친
정천
정음
정주
정착
정광
정글
제함
제보
제긴
제월
제창
제주시
제각각
종과
좆같
주우
주나
주호
주번
준거
중어
중년
중화
중립
즁인데
증말
증보
증분
증장
지마
지란
지류
지으
직증
진성
진희
쩜된
쭈욱
차려
찬가
참으로
창과
처에
천좌
철수
청위
청순
청해서
초입
초면
총세
출선
출마
출까
칠지
칠백
카타
캐슬
컴포
케인데
코도
쿨럭
타자기
터서
터무
테이트
토막
통싱
투신
트였
트레이
팔송
팔려서
팔걸이
팰리스
퍼센
평동
평이
풍림
피고
하금
하송
하남
한숨
할만
항문
해갈
해내
향시
허접
형구
형법
호구
호동
호되
호국
혼용
혼데
홍어
화로
환거
환고
황사
황제
황주
효종
후이
ｂｒ
##워져
##155
##라구
##sj
##MO
##KT
##RI
##Rel
##세여
##사진
##사이
##av
##lay
##안군
##인수
##거에요
##시다면
##겨우
##포동
##이안되
##할인
##EA
##EY
##버릴
##버려서
##자주
##보이
##제품
##unt
##ti
##gl
##십자
##리필
##트리
##방향
##노선
##분실
##두근
##되요
##되면
##먼지
##만큼
##AT
##cess
##불명
##쿠나
##줘요
##없어요
##봐요
##플러
##올리
##ｏｗ
케이크
는데다가
진행상
은행권
한도문
통화고
연장선
촬영상
입출력
발송장
어려서
그런다면
그리도
그리스
된다더니
이나기
지만지
으셔서인
위해서인
이런가
어려운가
일자인
10014
마지노선
대한다
한다길래
계획서
반사음
아마이
1132
판매원
바꿔라
몰라라
1215
나온데
1860
일정액
우편번호
올라야
최저한도
1690
1710
17600
orp
피해갈
전부명령
시켜라
1944
1973
중앙지
영문전
005
돌아서
2160
##oon
316
317
3150
##book
들려주
20190
이민기
1420
어두운색
##니깐요
908
##tmail
##anc
강해요
는다구
자주자주
붙여져서
271
805
223
2273
어떡해야
항공편
기다려야지
버스표
찾아본
미국인
##alk
부담감
083
인쇄소
579
332
900000
664
그면서
358
끝난다
끝난다는
으면서요
준다구요
잡혀야지
깜빡이
전해들
당한다
532
534
341
다이슨
##ork
세워도
513
40000
486
멈춘다
7477
이만저만
0102
해봐야겠다
진다는데
무한리필
출연료
미칠까요
462
46000
526
##let
교환기
449
589
391
펼쳐진
코리아나
423
4210
##iti
김영하
541
해진다는
모를까요
기상청
난다니까
##더라면
437
맞춰야만
671
868
8600
984
961
96000
수출입
동정표
막힌다
을라고요
798
가져와야지
##해야되나요
날아갔
416
417
어쩌구저쩌
구부러져서
SPAC
미뤄져
아동복
지구대
심해진
공모전
elh
846
8460
스위트
베이비
가득히
포스팅
89000
787
온다면서
1948
##arket
겨우겨우
이디야
동반자
오스트리
이지나
직사각형
문젠가요
Deps
이태리
이구영
문상은
벌어들이
시신경
소형주
민간인
brown
contact
레이저
레이디
조선일보
넘긴다
가해자
백스페이스
process
동대문구
웨이브
신도림
지식인
AMT
hotmail
남아공
월등히
CMMNOT
동래구
됏다는데
포인튼
IMAG
상도동
상록구
0557
귀여운
는구만
##수있나요
통역사
100154
##ertRel
플러그인
미세먼지
김다솜
막힐까
휴학생
##고싶어요
무성의
크라운
##자동이체
엌덯게
쩜영이요
TRA
fresh
떠오르
지저분
PRIME
진통제
##공인인증서
Ubunt
암것도
익익월
##어디서
GSPOINT
고구마
request
주먹구구
진에어
##수고하세요
Fedora
vvip
뇌졸증
어띃게
중환자
한구자
##UISF
BKWg
tLUISF
끄트머리
도돌이표
두근두근
딜리버리
무반응
순식간
스페셜
어드레스
어정쩡
엘이디
터무니
ｂｒｏｗ
어쩌구저쩌구
SPACING
IMAGINE
##ertRelay
Ubuntu
주먹구구식
ｂｒｏｗｎ
415
796
774
714
812
874
972
9300
CertRelay
ELS
KISA
LP
LED
MOS
PM
RW
TP
VP
WIF
YG
YO
You
aap
bn
cc
dn
ev
lwj
ooo
sus
ub
zz
ㅇ니요
ㅏ드
ㅐ요
ㅓㅇ
ㅓㄱ인
ㅗㄴ
ㅛ습니다
ㅠ알
ㆍ적금
가료
가증
가데
가든
가망
가늘
가뜩
각지
간아
갈쳐
감겨
감감
갑석
강일
강석
강변
개원
개혁
개더
걀제
거서
거세
거린
거길
거덩
건성
건하
건일
격성
결코
경춘
경락
경창
고금
고합
고호
고십니다
곡선
공명
공직
관행
관료
광수
구면
구료
구불
구민
군포
권력
권수
그전
극히
근디
글쿠나
금조
금순
금당
기즈
기주
기냥
길상
김예
김연
꺼짐
나부
나단
나참
낙인
난중
난해
난처
납치
내구
내버리
내맘대로
냐니까
널리
녈하세요
노호
노라고
눈가
눈매
눈길
뉴코
느릴
느낄
니여
다죠
다방
다현
단인
단아
단수
달안
달마
달음
당천
대항
대열
대니까
댈까
더나
더리
더래요
던킨
데한
도니
도소
도신
도경
도발
독단
독특
돈들
돌입
동동
동음
동망
동맹
동인지
됐으나
되려
되밀리
두아
두르
드레
드랑
들락
라시면
랗게
럴까요
렵습닏
령전
로보
로랑
류음
리베
마세
마장
막대
만중
만음
말끔
매요
맹사
맺힐
머플러
멀찍
멋진
면기
면셔
명복
모라
모였
몬데
몰로
못쓴
무중
문어
물고기
미기
미녀
민은
민수
민속
박준
박승
반찬
받치
발아
발상
배민
백선
백사
백상
번문
번창
법조
베리
병선
병비
보회
보강
복근
봅니까
봐줘
부티
분나
분수
분출
분취
붙히
블러
비준
비월
비실
비닐
비쌀
빙빙
뺀다는
사한
사발
사창
산전
산다고
삼년
삼형
상서
상징
상은
상비
상활
서선
서우
서아
선요
선승
설장
성이
성주
성복
성암
소인
소자
손맛
송호
수비
스칠
스폰
슬슬
승일
승원
시트
시방
시비
시초
식게
신공
신석
실로
실액
썻다고
썼으니
쓸께요
씨보
아십
안인
안들
알사
알음
암가
앖는데
앤드
약소
약실
어유
어상
어자
어댑
언양
얼라
없다
엔제리
여주
여배
여론
연사
연적
연마
연천
연개
연희
연월일
영희
영농
예라
예가
예오
예주
예컨
오목
오염
오작
오능
온제
와이드
완결
왜적
외아
외한
외수
용진
용점
우도
운운
워즈
워커
워킹
원문
원주시
위법
위협
윗선
유순
유광
육정
윤리
윤태
율문
은구
은근
을고
음달
응게
이일
이토
이식
이희
익산
인긴
인주
인삿
인덱스
일처
일취
임하
임이
자릴
자오
자르
자른
자단
작은
잖소
잖냐
장마
장모
장심
재도
재필
재취
저소득
전금
전증
전단
점하
점한
점해
접목
정조
정왕
정교
제을
제수
제네
제걸
제말이
조미
조재
조연
조각
조폐
존속
종래
종중
종필
종근
종만
좐데
죄다
주니
주계
줄까요
중한
중리
증진
증원
지근
지령
지비
지남
지훈
직면
진수
짆아요
징후
짜일
짧아
쩜어
쩜음
차안
차수
차츰
찬자
참구
천동
천자
촉구
최미
최수
추카
축목
출혈
치마
칠순
카즈
캄보
케트
콜도
쿽송금
키요
탄탄
태용
태가
태권
택했
토사
토장
통후
투구
투에
퉁장
특급
파실
파스타
팍스
판교
판촉
팔불
팝콘
팩슨
페리
폐인
폐렴
포도
포세
프레스
플럭
피플
피에스
필두
하진
하돈
하닌
학동
한준
한천
한주
한법
한디
한걸
할텐데요
함도
함정
항구
해와
해봄
해봅
해다가
해맞이
핸들
햣는데
허송
허훈
헌법
혁명
현희
현곤
형인
형장
호조
호면
호생
혿시
화신
화자
환청
활로
활인
홧팅
황새
횟차
후성
후배
후애
훈훈
휘경
흐미
흐르
흘리
##57
##로운
##도구
##구여
##구석
##RCSC
##준다고
##market
##안내
##적이
##인데요
##다는데
##성기
##시만
##시백
##하시
##하신
##if
##상태
##는디
##는ㄷ
##이다
##이너
##여부
##one
##IG
##어보
##어졌
##UT
##tx
##ga
##난방
##권자
##의원
##치면
##DA
##CD
##되어
##날짜
##날락
##스레
##쟁이
##탈퇴
##ㄱㅔ
##테나
##곡역
##환경
##달리
##ju
##HO
##겠네요
##박죽
##ㅁㅇ
##꼬리
##ㅅㄷ
##ㅅ어요
##붙이
##녕하세요
##링크
##넌트
케이프
는데두
그러할
아니유
해서인가
##ILL
선택도
도와야
으셨더라면
주민지
하루빨리
이자와
페이용
자금원
1560
15500
아이언
아이맥
프로테
참고인
내려갑니다
1022
10600
이어집니다
기본형
올려놔서
납입증
국민차
맞춰준
사이음
넘어와서
멈춰야
1280
2580
설명도
36000
글자판
쩜이다
쩜이에
ㅠㅠ이
ㅠㅠ혹시
투자가
빠져나감
시스로
마스타
마스카라
ㅜㅜ감사합니다
ktm
1982
1972
1937
어머나
한달까
추천요
전자통장
1332
이하이
내보낼
디자이너
적혀진
0006
구나라고
들으니
수취인불명
장애자
이민지
발신인
다라든가
905
23200
075
강해진
부가형
pcb
반복설
는다던데
ISIC
2790
017
나온다던
2650
모아져
들어온지
407
608
601
이따금
이따위
우체부
임현지
정하신
찾아간
653
smp
시켰었
POS
60000
쩜일인가
052
잃어버림
0323
한가위
576
554
559
비트로
쩜사요
이이체
##103
돼야지요
파트라
하이츠
사오만
준다는데요
374
326
329
승진도
아야지요
시킨다면
##ory
곱하기
562
56000
ㅡㅡㅡㅡ
제주항공
##ntId
늘려줄
482
4860
구성명
내가면
ㅠㅠㅠ네
불량품
477
4700
##CBK
998
##ight
이천시
73000
유가증권
828
일찍이
528
##led
서상면
150000
594
5959
392
397
을라나
APPLE
##ANG
김수지
##이체한도
421
497
543
547
재정비
gol
648
641
643
이오나
INV
난다구요
김동화
쩜쩜쩜세
쩜쩜쩜있
들으셨을
983
989
9800
965
고쳐졌
서소문로
20160155
느려진
본다든지
날아와서
정중히
일어서
구서동
##거든여
879
92000
##ddress
임재형
됫다고문자
695
697
15400
짜린데요
ㅇㅋㅇ
미쳐요
##ㅠㅠㅠㅠㅠㅠㅠㅠ
시끄러운데
발전소
삼사사
9390
봐야겠다
money
경화증
까다로워졌
customer
떻게해야하나요
재생성
김창환
뒤져봐도
가져온다
가져온다고
##code
동천동
바란다는
중대장
건축사
04030
##LED
0505
질까봐
19702
AAPARE
넘긴다고
십자가
목포시
HOT
김기진
마셔도
하동군
UNIST
가전제품
벗어날
추징금
DBS
도산대로
25340
작아질
LCD
도봉구
클립보드
헤드셋
줄줄이
apk
빠져나갈지
나루토
꼭지점
으래서
매탄동
튀어나온
##irect
트랜스퍼
##더블혜택
UBIKEY
campidC
끊임없이
ONLY
confirm
Ipinside
kida
뒤죽박죽
문외한
불합격
소일거리
손잡이
에뮬레이터
컴포넌트
WIFI
lwjgl
가뜩이나
감감무소식
뉴코아
들락날락
신석구
어댑터
엔제리너스
여배우
오작동
인삿말
정왕동
팔불출
플럭스
해봅시다
022
511
744
978
915
916
918
ACMMC
Adobe
BB
BMO
BILL
CS
CPM
CEO
FM
GO
GPS
HD
Hote
Lt
MM
MAL
MWB
Off
PageSafer
PSP
Sms
TE
Vl
WAL
WCBK
av
asr
bin
citi
gen
int
ine
jj
korea
mA
may
nb
plent
too
uU
ver
vya
wp
wh
ㅆ어요
ㅇ서
ㅇ용
ㅇㅔ
ㅇㅆ
ㅇ판매
ㅏㄹ
ㅓㄹ
ㅔ이
ㅛㅏ
ㅜ이
ㅜ안되
ㅜ알겠습니다
ㅠㅍ
ㅡㄹ
가조
가람
가보
간데
간장
간평
갈등
감삼
갑지
갔으면
갔으니
강선
강만
거미
거여
건단
걸립니까
검단
격차
격렬
결려
경서
경순
계곡
고으
고작
고충
곡동
곤경
공소
공적
공한
공해
공경
공군
공평
공존
공홈
과어
과감
과잉
관용
관중
관성
광덕
괜한
괴물
구적
구래
구중
구신
구점
구대
구룡
군경
굴러
귀도
규후
그려서
근비
글면
글귀
금로
금니
금적
금린
금비
금발
금내
금해서
급방
급통
기려
기할
기란
기당
기창
기식
김세
김보
깍이
깎인
깐다
껌정
껍질
꼐좌
꽁짜
끄시
끼워
나대
나삼
나잇
나이트
남녀
납다
납두
냅니다
냈으니까
녀석
노안
노이
노동자
논다고
농림
높인
놓칠
놔버렸
놧는데요
놨잖아요
누릅니다
는기
늘인
능해
니지
니즘
닌텐
닙입
다릴
다든
다셔
단골
단속
당보
당길
대야
대게
대공
대방
덕성
도거
도합
도비
독산
동도
동력
동포
동량
동암
동갑
동굴
됏나
됩나다
두드
두고
드이
드래도
드레스
득공
등주
디려
따진
땨문에
떠올
떻개
라세
라이트
라더군요
랄라
랍니당
랬어요
러예
러지
레인지
려기
려믄
력구
령자
로니
로점
로란
롹인
릅니까
리세
리여
리버
리언
리건
리콜
린카
마중
막스
막바지
만년
말예
망한
맞대
매회
맨들
머이
먹거리
멍청
메카
메트
면경
명회
명분
몆번
모마
모에
모실
목가
목이
못가
무니
문가
문임
물레
뮌가요
미아
미까
미분
미티
바도
바리
바디
박하
박혁
박희
반월
반해서
발마
방배
백서
백일
백현
밸류
뱁크
벌이
범일
별정
보아
보있
보허
보체크
복적
볶음
봐드려서
봣는데도
부세
부중
부신
부려
부화
북인
북결
북쪽
분한
불임
불기
불평
뷰티
블라인
비사
비염
비쳐
빈혈
빙시
빠집니다
빨래
빼쓰
사니
사데
사란
사부
사차
사환
사옹
산용
산와
산리
살아요
삼촌
삼각
삼달
상구
상동
상준
상소
상풍
상완
서릉
선동
선다
선어
선원
선글
성의
세류
세원
세틀
세뱃
세찬
세까지
셨겠
소사
소종
소고기
속히
손경
손수
송치
스구
스쳐
슴당
습하
시주
시의
시집
시당
시엔
시재
시바
시추
신면
신나
신보
신현
신곡
실려서
쓰쓰
아안
아몰
아감
아바
아애
아메
안고
안해
안부
안습
안테나
않아
압구
야인
야아
야만
양경
양근
양심
어하
어문
어쭙
억상
억단
얼말
얼떨
엉켜
에기
엠티
여이
여져
연승
연산
열시
영유
영한
예천
오문
오산
오비
오락
오리지
올꺼
와봐
외래
외어
외전
외웠
요게
요공
우요
우동
우네
우원
운고
웅도
웅진
원두
원색
월오
유실
유턴
육고
육음
육호
으만
으악
은아
은음
을껄
을래요
음력
이레
이청
이겨
이통
이길
이견
인위
인내
인줄
인다고
일나
일결
일땐
읽힌
임동
자성
자행
자그만
잔행
잔역
잘린다
잠어
잠잠
잠자리
장내
장판
장선희
재촉
저유
저촉
저마다
적은
적아
전복
전설
점다
접소
정라
정색
정연
제선
조도
조요
조거
조문
조승
조퇴
족발
존나
종지
종부
주점
주후
준댔
증구
증주
증약
지운
지황
지존
직히
진로
진가
진경
진건
진주시
징인
쩜인가
차대
착시
찮은
참기
창어
천로
천인
천고
천해
천어
천음
철한
청명
청운
체동
쳐요
초로
초중
총포
총어
최준
최송
최형
최웅
추소
추신
출중
출현
출퇴
취한다
치서
치인
친한
칠고
칠려구
카바
카든지
커도
컴투스
케케
코오
코디
코엑스
콜롬
크다
키미
타면
탄생
태양
택일
터질
테레
토크
퇴거
투표
트기
트럭
팔달
퍠로
퍼트
편로
편신
평촌
포시
풀립니까
프레
플젠
피임
필라
하임
하호
하등
하날
하튼
하규
학명
한성
한재
할가
함미
함기
합선
해거
해영
해둘
행역
행법
햏어요
햤어요
향원
허명
험한
현서
현저히
혐료
형기
형대
호지
홀씨
홍시
홍주
화내
화이트
환입
황토
후구
후아
휘어져서
흘러
흘러서
희박
히로
##sc
##slek
##rh
##NA
##NG
##사리
##사합니다
##인출
##거죠
##계속
##신고
##하는지
##려주세요
##아서
##ib
##는대요
##해보
##나와
##증서
##ol
##오드
##IX
##어가
##어플
##EON
##per
##pon
##UL
##ust
##tn
##gh
##gle
##찌감
##부리
##전에
##리얼
##ha
##그런
##있나요
##코인
##등급
##설정
##장창
##르트
##혜원
##급여
##만한
##AX
##LR
##연락
##티지
##cm
##ck
##바탕
##누리
##GB
##디아
##디ㅡ
##디션
##js
##외과
##충전
##ZS
##ㅁㄴ
##혈증
##책임
##ㅌㅌ
이용주
드리워져
휴대품
다른고
이상아
해야함
으시라
연락줄
보여드려서
마이카
그리거
그리고는
접수대
네이트
이런다고
드려놨
사업가
이해력
아이나
아이쿠
접속구
승인도
증명력
기준서
괜찮아
지급보
정지문
다가와
에이블
음성군
내려지
한다네
고지혈증
이어야
이어져야
기본금
KTF
생활기
바이어
1111
1150
11200
판매사
나가시
기업가
넘어질
넘어진
케이티엑스
번거러운
12700
든지요
빠져버린
생각난
그럴만한
나올라
경찰대
367
데이네
보호제
쩜이라
쩜이구
ㅠㅠ어
ㅠㅠ그렇군요
사기업
됩니까요
1621
만드세요
1951
마을버스
전문의
008
006
009
0042
0026
0095
아닌데다
아닌데다가
13500
어두신
##oogle
최장일
환산율
가산동
성명서
902
합니까요
2380
조심히
그래야죠
발행일
보인데
보장금
0999
27200
재판부
날라갈
0174
803
모자른
모자랐
2230
22100
706
262
모아야
4070
603
이치요
옮겨져서
잘려져
틀려졌
656
면세품
쩜오구
쩜오에서
458
451
459
채무인수
952
954
95600
556
334
041
비트코인
쩜사로
661
062
063
단축키
박명성
수집가
끝난다고
CBRCSC
37000
바람직
중계동
321
3215
중국인
756
시킨단
위원장
5340
움직여요
346
347
34000
제조업
행정부
##990
당해도
기입란
561
아실까
ㅡㅡㅋ
519
학교명
늘려갈
넘겨진
##360
휴직자
##208
##201
##402
##404
##하나여
473
746
행위능력
731
734
7385
2502
942
##BKM
##lee
떨어진다면
제작자
11024
592
5900
합쳐도
다녀가
가까워져서
예매권
4930
김영순
늦춰서
649
얘긴데요
달라져도
624
4390
줄일려고
나타난다고
들어온다거나
들으셨는지
인기요
인기리
라이터
676
864
9850
능력자
962
아녀요
경영난
동정동
구직자
685
683
689
느려졌
아라아
주지사
습득자
영사관
##ㅜㅜㅜ
보낸다던
보낸다던가
이백만
##BAE
올라온다
올라온다는
전전달
타임아웃
떨어뜨려서
694
usd
847
10000000
모여서
김성한
19800
오영일
반가워해
연수구
123456
1949
오버레이
일으킬
갈려다가
remit
쩜네에
허가서
1093
무서운
중구난방
Payment
멀쩡히
받아들여졌
노동조합
##unds
수영장
임성수
Markany
그늘진
AIR
불러줄게요
불명확
늘어난다는
100150
나마나
앞장서
CIT
1227
기보다
##mazon
이선화
어딜까
메이저
메이플
역삼역
0802
155000
갑작스런
드러가
벌어진
##ational
##ㅡㅡㅡㅡㅡㅡ
26350
틀림없이
늘린다는
렇군요ㅜㅜ
열린다는
Reader
김종수
신부전
입학금
FPMCRD
오정민
3708
1661
협동조합
HOTE
줄인다는
없앤다는
왠만해서
활기찬
MCI
wcmmcom
할찌라도
찮으시다면
무기한
##ack
된대서
바비도
##lient
##마이너스
##부탁드려요
유주현
챕쳐본
시부모
실종자
가재도구
도망가
잡아먹
손보사
조그마
##는건가요
new
김홍기
PBKBKM
무너진
저당권
화도읍
##모르겟
CHOI
MoasignEX
부사장
불상사
서문석
##수잇나요
마칠게요
브랜치
괜찬으신가요
FPMMAN
쩜육사요
무심코
노형동
마카롱
information
ㅇ상품명
ㅛㅔ요
공탁금
김가희
쳐다봐
details
괴롭히
머시기
시커멓
어긋나
으랴고
16330003
php
귀기울
빙그레
##sjJ
중환자실
evntId
경춘로
로보트
멀찍이
이일영
재취업
종근당
캄보디아
ㅇㅋㅇㅋ
ACMMCOM
MMF
MWBMAN
WCBKCSC
genie
plenty
uUsjJ
ㅇ판매한도
닌텐도
블라인드
선글라스
세뱃돈
아몰레드
아메리
총포류
출퇴근
##찌감치
582
622
615
613
614
722
711
878
819
834
988
912
975
932
AN
Clearing
ERP
HS
If
Inter
Last
MT
MCM
Mac
Or
OF
Pap
Sk
Sc
Tw
Ttx
Visa
WS
aa
ad
ac
are
bl
bic
bis
beneficiary
biz
cn
dd
dc
deb
fa
funds
ga
good
he
hy
iT
im
km
keb
kor
key
lee
mi
msg
martm
ny
oy
oon
opp
pr
poo
part
sb
sim
sort
tm
tra
tip
talk
up
wj
web
was
zip
ㅂ니
ㅇ금
ㅇ에
ㅇ습니다
ㅔㄴ
ㅜ없
ㅜ아니
ㅠ네
ㅡ이
ㅡ그럼
가명
가대
가림
가집니다
가불가
간어
갇혀
감경
갑갑
강내
강태
강병
강렬
개신
개고
개피
개판
개막
개속
거선
거가
거정
거게
거자
거공
거듬
거둔
거늘
거뭇
걸구
걸래
겆ㅅ
게신
게에
게재
격려
견이
경조
경준
경가
경해
경희
계리
계급
고경
골초
공도
공면
공처
공덕
관서
관시
관찰
광저
교모
구서요
국산
그른
그름
그들
그럿
글서
금라
금래
금합
금제
금창
금합니다
급구
급단
기친
기쁩니다
길어
길재
김우
김병
김단
김덕
까자
꺼려
께로
꼬였
나래
나쁠
난이
날라고
남천
남수
남매
남잔
내월
내차
내막
내셔
냈으니
냉정
냐니까요
넘김
네다
노시
노아
노스
노파
노티
노릇
논란
농락
높였
놔라
느셨
느낀
닌지
닏아
다짜
다날
다렸
다룬
다지만
단고
단출
달료
달제
달차
담도
당세
당년
당처
대급
대피
대본
대축
댑니다
댓다
더구나
덕진
덮인
도적
도레
도한
도승
도저
독감
독산동
돈부리
동요
동나
동만
동역
됏고
됏는데요
되거
두꺼
두드렸
둔다
드릭
드링크
들쑥
듭니까
디도
디아이
딩크
따는
따란
딸려서
딸아이
때때
떄도
떄만
떠라
떠넘
띄운
라건
라치면
랐는데
랑게
래게
래두
러스
럿이
레스터
렉스
려먼
로진
로마
룐가요
립후
마라
마동
막론
막힘
만선
만인
만을
만공
만대
만다고
말라
말다
말풍
맙소
매인
매너
멕시
명전
몆년
모예
모토
모범
목요
못된
무네
무비
무능
문래
문면
문호
문창
뭐니
믹스
민세
민진
민규
믿음
밀착
바구
바통
바나나
박슬기
반동
반향
발소
발정
발어
발수
발주
방시
방대
방통
방책
배트
배근
백어
백출
백단
백혈
버티
버섯
버체크
벌레
범서
범어
법관
별점
별루
별별
별론
별론데
병가
병인
보진
보할
보주
보개
보리
보월
보육
보담
보메
복창
본지
봉구
봉합
봉길
봐두
부을
부풀
분지
분면
분담
불신
불미
불어
불공
불찰
불어나
불고기
블리
블체크
비명
비할
비공
비움
비에스
비케이
빕스
빠뜨
빨른
뻔히
사중
사간
사령
사품
사드리
산택
산후
삼다
삼정
상임
상암
상답
샇바
새기
새창
색감
생존
서안
서함
서공
서윤
서방
서던
서석
서희
서양
석가
석현
선도
선선
선탁
선번호
설제
성나
성창
세유
세면
세실
센텀
속시
속진
손익
송인
송추
수문
수옥
수연
수심
수과
수박
수칙
숙진
순조
순이
순대
쉬워
스승
스쿠
스틱
슬로
승질
승주
시금
시영
시피
시업
시국
시너지
신복
신실
신되
신재
신봉
신학
실라
실건
실생활
심부
싱청
싳은데
썻다
쓸수록
아함
아슬
아낄
안계
안어
안순
안와
안다면
앉혀
알렉
압부
앖어요
앖어서
애시
애쓰
앵글
약수
약후
양고
양아
양철
양혜
양방향
어나
어으
어욧
어렴
어쩧
언두
언능
엉엉
에잇
여전
여업
역문
역순
역보
연신
연나
연강
연등
연건
연추
연다고
염색
옆집
예질
예두
예감
오간
오랑
오민
옥천군
온천
온댔
온대요
온누리
왔음
외용
외상
외실
외감
요주
요샌
욕심
욕망
용마
우가
우고
우영
웃돈
원선
원적
원석
원초
원망
월번
위계
위두
유업
윤진
은성
응할
이금
이계
이료
이대
인변
인접
인척
일력
일초
일텐데
임제
임당
임지영
잏는데
자적
자거
자계
자할
자차
자며
자부담
잖게
잘나
잘잘못
장당
장색
재승
재충전
저동
저면
저해
저곳
적근
적확
전음
점령
접종
정제
정건
정엽
정회원
제아
제상
제는
제난
제비
제분
제곱
젠가
졔한
조동
족지
졸음
종려
종대
좋이
좌임
죄이
주금
주비
주범
주워서
줄금
중액
중금리
증입
증간
증평
지스
지언
지단
지칭
지릉
지멋
직수
진고
짜구
쩜도
쩜을
찌꺼
찌그러
차어
차향
찮게
창다
창기
처치
천은
천석
철강
첨시
첨단
체액
체더
체식
초가
총일
축이
출렁
충수
취조
치크
치요
치자
치보
치치
친다
칠수록
코미
쿠쿠
퀴즈
클났
타서
타대
탄력
태현
택인
토하
통칭
퇄퇴
트일
트윗
특세
특허
틍장
팀뷰
파서
파라
파스
파격
파인트
판다
판다고
펀딩
페소
페잊
페크카드
펨인지
펨웨어
평수
평기
포켓
표미
피란
하서
하성
하력
하문
하경
하부
하두
하와이
한조
한영
한길
한없이
할여
할랍니다
함인
함해
함게
해조
해양
해옵니다
해바라
행실
행단
헌호
현철
형과
혜제
호선
호기
화서
화요
화일
환안
환해
환대
환액
환처
환송금
황용
황희
회성
회단
후레
후임
흑자
흠집
흥분
희선
##서는
##서류
##도장
##도너
##라이트
##명동
##sv
##ROS
##준호
##세서
##가없
##지않
##계동
##다구
##다구요
##시스
##하죠
##고짜
##정식
##야하나요
##아슬
##진창
##ide
##입력
##한건
##상금
##이안
##이랑
##미지
##나간
##나봐요
##wn
##wy
##dhr
##FX
##otp
##오래
##오류
##IT
##ION
##Ept
##ㄴ다
##했어요
##수수
##ym
##말고
##란다
##프리카
##trl
##부진
##린다는
##런치
##그냥
##있어요
##DL
##COM
##두고
##번달
##장치
##더스
##날쑥
##만기
##스너
##연히
##쓰고
##파스
##배송
##테스
##바람
##누르
##받침
##GATE
##국적
##HION
##왓는데
##뭐니
##OF
##vc
##초문
##걸리
##뜨는데
##겠습니다
##VE
##셔츠
##평동
##싸움
##벤트
##닐라
##았는데
##홈쇼핑
번호순
카드깡
그러가
이용신
등록제
연결재
전화벨
이상한
이상민
체크인
금융인
어떤데
신용판매
##00000
들어감
마이스너
면허세
그런단
그런대로
이자원
는지고
설정원
사진관
조건문
아이코
접속기
신다며
신규만
1002
1006
10018
다가올
2450
1019
1013
10100
그걸루
전달하
불러내
라도이
보안원
수정란
상황도
문제시
1180
11700
공지대
판매장
지나갈
지나쳐
##tpdy
계산일
넘어섰
장기연
돌려봐도
삼성생명
번거럽
남겨뒀
복사기
오래가
2512
요구사항
한지라
오프닝
따른다는
정해요
가져서
ㅠㅠ그럼
안전장치
공제금
16500
저녁때
바탕체
주택공사
보낼지
1922
중앙동
0022
0016
0023
0056
1339
돌아섰
여서도
2116
마음씨
상승도
기한도
안경테
바꿨었
906
909
현대홈쇼핑
079
기술력
##확인서
가로선
021
머리통
당겨질
희망자
2730
토스트
01000
0115
0133
외국어
모자랄
##ari
##are
2249
2262
나온다구
나온다든지
602
이치로
찍혀져서
예고편
나갈게요
이중수
29500
29300
##ally
으라던
##INK
11990
쩜오육
0821
쩜일퍼센트요
051
054
053
틀렸으면
금시초문
부정확
##rship
고용자
852
571
577
5750
인천광역시
평균치
롯데캐피탈
558
553
557
어지신
1201
원할치
331
3320
043
쩜사일
공장장
##102
359
3560
자연스레
으려다가
372
찍히면
준다든지
준다더니
저금통장
754
을지로
고마운
5337
다이오드
띄우기
566
감상자
7002
늘려줘
휴직급
485
48000
하여보
겹쳐진
472
7429
996
997
인포메이션
사시안
##nership
0101
946
826
8282
##교통카드
올려야지
어떤지도
블랙박스
463
미사일
5290
##able
##lete
지지부진
블로거
달려가
이모님
5950
58000
눌려져
갈아탈까
위로금
이윤희
##ANS
426
4950
김영주
542
가이드라인
끝났으면
ltv
김동수
433
439
오를지
쩜쩜쩜으로
나타난단
##ret
##reet
673
679
6700
SSD
639
6352
영구히
나간다던
861
866
exp
부러운
964
벅스카드
728
신문사
EXP
##ender
684
으셨었는데
옮긴다고
2016016
강동역
고소득
나빠할
##TED
안양동
KBO
됩니가
됩니ㅏ
큰일날
일어납니다
##raping
init
871
FACEid
받아들인
건너편
928
926
they
이랬었
됫다고하는데
773
779
끊어질
OOOOOOOO
6900
정돈가
1952
849
코스모
꺼진다
실업자
스위치
8900
784
유사시
성형외과
110237
쓴다는데
##TION
##ㅠㅠㅠㅠㅠ
시끄러운
더만요
617
총합계
어째요
돌아온다고
##239
후반부
moa
버린다니
충청도
MoaSignEx
##ㅋㅋㅋ
떻게해야
12250
125000
미친년
붙인다
테마파크
문젠지
문젠데
0701
세세히
Dear
조형기
하하하하하하
개정안
절정기
티오피
드러오
capx
차분히
드니만
월드컵
보라매
어떨지는
그린빌
정류장
피아노
김천시
막연히
오동작
20160272
김지혜
시나리오
##ALID
박주영
세분화
이서진
ㅠㅠㅠㅠㅠㅠㅠㅠㅠ
소이다
엉망진창
써진다는
주정도
줄인다고
이재식
##urity
마셔서
plus
견적서
20160264
20160267
으으으
##crd
도우미
가져간다고
중개업자
hold
jtbc
주구장창
그만둔다
육이구
마찬가진가요
변할지
망해도
이규호
귀여워서
신명순
ESTA
First
올림픽로
동대구
흐흐흐
dev
좋아해
풀어놓
amt
장례식장
포지션
ㅠㅠ감사합니당
빠져나갈까
아싸리
로지스
스코어
엄중히
thanks
first
구겨져서
할러고
##이버페이
6164
지직거리
##orld
돌아다녀
decline
hello
like
다각도
불쌍히
연예인
충무로
하노이
received
간병인
연거푸
퍼센티지
하남시
susdhr
구민원
던킨도너
못쓴다고
MALL
nbsp
두고두고
얼떨결
오리지날
콜롬비
테레비
필라테스
16210003
FPMMANV
아메리칸
Paper
Twin
TtxEpt
WSJ
debit
iTunes
martmall
partnership
tmon
경조사
광저우
다짜고짜
도레미
두꺼운
들쑥날쑥
때때로
말풍선
맙소사
멕시코
뭐니뭐니
샇바니다
순이익
아슬아슬
애시당초
지멋대로
직수입
찌꺼기
팀뷰어
해바라기
던킨도너츠
488
636
788
782
716
822
844
811
814
982
977
933
AL
Ach
BL
BIS
BSP
Cd
Cu
Ctrl
DMC
DLS
EM
FB
Fj
IR
Ic
KM
KK
Kpay
Korea
NC
NCX
PL
SQ
Service
TL
WO
WCM
YC
arm
aada
america
address
bx
cl
clearing
dD
dlq
direct
em
eg
ews
fV
fail
fin
htm
kin
lf
lu
last
oax
out
ptp
park
sws
tw
vX
yga
ㄴ대
ㅆ나요
ㅇ라
ㅇ하
ㅇ해
ㅇ액
ㅇ원
ㅇ체
ㅏ아
ㅗㅇ
ㅛㄴ
ㅜ요
ㅜㄴ
ㅜㄹ
ㅜ어떻게
ㅠㅁ
ㅠ감사합니다
ㅡㅇ
ㅡㄱ
ㅣㅆ
가니
가성
가점
가할
가임
가문
가천
가생
가처
가모
가각
가속
가본
가없
가평
간중
간과
감한
강판
개떡
객중
걍우
거점
거셨
거근
거창
거취
걸가
겅강
겅보험
게야
결요
겹쳤
경면
경오
경음
경전
경만
고보
고원
고후
고혈
고한다
고나서
곤이
골목
골골
곱창
공안
공진
공입
공판
과라
과하
구음
구실
구먼
구교
국물
국장
국립
군구
군사
군필
군수
굼금
권민
권합니다
규하
그랴
극소
근가
근방
근종
글루
금포
금토
금반
급다
급진
급함
급장
기수
기영
기모
기현
기쁨
긴한
김하
김이
김규
김훈
깁스
까치
까딱
깝깝
깨져야
꺼두
꺼림
꼬이
꼬치
낀데
나자
나공
나스
나감
낙성
난생
남이
남여
남원
났거든
낮춘
내준
내거
내오
내의
내왔
내후
내본
낼라고
냄비
네유
넥센
노가
노예
농가
농심
놧다고
놧으니
놨더라
눙한가요
능성
능문
능숙
니스
님다
다크
다사
다란
다복
다군
다칠
다향
다움
답안
당안
당좌
당면
당창
당최
대는
더든
덕수
덜컥
뎃하
뎃이
도천
도결
도축
돈은
동준
동세
동가
동계
동은
동춘
동두
동연
됏던데
됏엇는데
됩다
됩보
됫었
됫대요
두구
두진
두두
두렵
둔건
뒀으니
뒤지
뒷모습
뒷받침
드포
드럽
드십니다
들왔
딧어요
딱지
때마
때려서
떠돌
떠버려
떡볶
떻ㄱㅔ
떼이
띄울
락앤
란도
랗군요
래는지
래더라
래스터
랜다
랴면
렀는데
레슨
력도
로유
로다
로얄
로이드
룐데
류형
른은행
리우
리임
리보
리본
마루
마모
마닐라
막지
막이
막달
막걸리
만신
만혹
말미
맙습
맙니까
망우
망신
망고
망간
매겨
매상
맥이
머서
머신
먹힌
메이크
면한
명언
명검
모방
모스크
목면
목란
목독
몸통
못나
무경
무순
무승
무었
무스
무술
문요
문과
문병
문건
문덕
뭘루
므슨
미거
미이
미심
미끼
민들
밀기
바서
바끼
바쁩니다
바뻐서
박거
박아
박원
밖이
반원
반화
반출
반석
반례
받드
발고
발기
발췌
밝힌
방사
방이
방기
방만
배고
배울
백제
버트
버팔
번게
번전
법제
베네
베르
변도
별지
별자
별건
별자리
병구
병동
병장
보선
보행
보나
보부
보트
보군
복록
봉화
봣자
부구
부준
부게
부린
부탄
분구
불인
불나
불철
불실
불발
불허
불특
브런치
블럭
비다
비버
비등
비울
비버리
빠라
빠빠
뿌러
삐뚤
사함
사마
사수
사복
사재
사향
사바
사교
사립
산로
산선
산액
산림
산학
삼적
삼상
상적
상봉
상확
상해서
생가
생태
서동
서유
서폐
서론
서약
서두요
석인
섞인
선구
선사
선천
성지
성진
성어
성부
성만
성역
성산구
세조
세나
세필
세낸
소증
소월
소규
소름
소량
소망
속명
속편
손기
손녀
송송
송료
송창
송현동
수세
수순
수두
수스
순데
순순
숨통
스미
스에
습디다
승구
승려
승아
승부
시료
시우대
식업
신임
신오
신전
신민
실레
심동
심상
심판
심규
싼데
쌍방
쌓았
써라
썻을
썻엇는데
씨로
아성
아상
아령
아스
아담
악의
안뜸
안현주
알씨
암지
앖다고
애역
애당초
야서
야고
야야
야한
야근
야밤
약품
양로
양상
양태
양육
어시
어한
어버
어든
어본
어쩝
어쭈
언지
언락
언덕
얼음
얼간
얼맙
엇갈
에이트
엠파스
여장
여친
역점
역원
연서
연좌
연면
연할
연방
연학
연견
열주
열매
영고
영혼
옇어
예증
예단
오답
옥상
옥순
옥스
올립
완어
외과
욉니다
요가
요함
요실
요감
용선
용사
용신
용여
용란
용결
용등
욱이
운로
운상
원액
원카드
월내
웨일
위성
위이
위자
유금
유증
유편
유창
유감
유건
육조
육인
윤임
윤희
으기
은퇴
을랑
음행
음랑
의상
의석
의외
이안
이를
이닝
이지영
인금
인승
인류
인치
인장
읹으
일세
일입
일문
일실
일장
일급
일가요
임력
임페
입창
입히
입불
자안
자미
자류
자등
자표
작사
작물
잘난
장서
장거
장은
장장
장표
재민
저의
저급
전은
전영
전염
절인
절실
젊은
점시
정철
정모
제크
제것
제번
제과
제날짜
졌으나
조준
조시
조한
조윤
조끼
족하
졸라
졸리
좁힐
종명
좌실
주적
주은
주노
주홍
주매
죽여
준대
줄기
중경
중주
중원
중형
중산동
중곡동
즉답
증징
증적
증년
증폭
지궁
지루
지부
지리
지페
지재
지업
지탈
지파
지과
지각
직위
진인
진천
진원
질서
짐시
쩔쩔
찢어져
차입
차오
차음
차환
찰칵
참참
창도
창인
창림
처가
처지
처했
처러
천가
천식
천과
청조
청예
청신
청했
청솔
청룡
청해야
체백
체이스
쳐넣
초어
초롱
총고
최면
최호
최승
최재
추상
추점
추음
추워서
춘절
출당
충실
치중
치수
친했
카네
카르
캠프
커튼
커집니다
케도
코원
코치
쿼터
크릭
태을
태풍
터져서
터라구
토피
토박이
통인
통진
통어
통채
통으로
퇴란
틈틈
티자
티온
퍼티
페드
페니
페가
페체크카드
펜션
편경
평구
폐질
포경
폭언
폰트
품인
품지
플래시
피보
하우
하순
하권
학술
한발
한심
한층
한나라
할걸
함지
합포
합창
항해
항만
해인
해옥
해남
해단
핸즈
햇볕
햇갈리
했을
행성
행마
행두
행창
향조
허원
헝가리
헤이
헬멧
현도
현종
혈관
혈전
협정
혓어요
형명
형진
형어
형수
호음
호두
호석
호응
홍은
홍옥
홍삼
화차
확언
확성기
환유
환상
환방
황달
황학
황후
효용
후서
후과
훌훌
휴아
휴한
흔한
흩어져
희진
히고
히이
힐링
##드폰
##즈음
##요청
##sd
##su
##sk
##sign
##MY
##rou
##nn
##조금
##KB
##TD
##NB
##운전
##가입
##사고
##사랑
##PL
##PAL
##ffe
##ak
##ach
##우선
##우우
##거요
##거지
##지기
##지역
##송이
##질구
##레일
##신분
##하던데
##하는데요
##려주
##려니까
##고저쩌
##아아
##아들
##아닌
##ik
##iv
##ift
##ific
##해도
##마니
##미다
##할때
##할려고
##나가
##여요
##won
##dpe
##FIX
##IO
##어리
##것같
##ㄴ데
##수원
##순서
##강기
##보낼
##까봐
##몰라
##tkr
##gard
##주야
##부타
##네용
##전동
##kL
##korea
##방금
##알림
##노스
##의점
##비티
##비슷
##비밀
##있는
##내야
##통신
##분해
##치기
##모호
##터치
##던데요
##토니아
##쳐지
##되었
##되는거
##현재
##었나요
##만별
##업자
##연체
##감기
##바뀌
##교동
##교환
##GRE
##Gjh
##jj
##Hx
##능데
##ONE
##메세
##충족
##흥동
##느데
##밖에
##잠시만
##꽂이
케이라
케이고
감사일
상담기
이용법
안녕바다
자동자
연결선
드릴지
드릴려구
사용인
기다림
이상요
이상은
이상황
이상자
영상시
금융망
관리직
신용자
들어줄
실행기
기간지
마이드
마이노스
그리하여
정확힌
네이바
OTO
기관사
기관고
따라왔
드려라
응답기
동의어
에스토니아
1555
1550
15300
아이드
아이아
접속어
증명사진
준비금
영업부
1003
10023
정지음
예정자
아서라도
20300
240000
내려준다고
계시는
일반어
아파지
1030
1020
1033
한다요
한다더니
불가래
고지도
사고사
지원서
지원자
달라져야
가상적
더블케이
양도세
문제집
1122
1124
판매량
사이드
지나인
지나온
3040
3094
기업인
넘어와
장기채
비대칭
우측면
남겨준
남겨줄
1270
생각없이
자꾸나
2530
1890
중지중
중지하
영향력
그랬는데
쩜이면
쩜이는
쩜이네
쩜이만
ㅠㅠ수고하세요
지역구
프린팅
걸려올
1618
16400
목표치
ktl
1977
19200
기대치
추천서
가리비
0085
아닌데도
1330
1320
1314
나눠져야
바꿀지
돌아설
여서만
0007
유리창
마음껏
니다만
서울역
매출금
편리성
cou
903
907
9042
엄마야
원치도
나갔으니
작업장
071
072
073
가로수
는다이
는다며
정정안
029
027
사무장
한미숙
당겨야
하락세
093
2750
27500
018
801
활동비
1801
그러니깐요
26500
모아논
못했었
409
606
임현철
공동체
까진데요
옮겨갈
내려보내
찾아내
29400
채워줄
그런지도
LGT
으라면
새해맞이
사라센
시켰으면
6008
088
연기자
058
035
038
032
불안해하
아주머니
아랫부분
어쩌고저쩌
85000
574
5700
958
져야만
3354
048
046
올렸으니
쩜사퍼센트
668
6677
스케이트
프리랜스
065
067
하이테크
376
빌려줘
생명체
버린다면
점내기
752
7590
전해요
고마웠
빠졌었
신가봐
382
보였으니
##orp
##med
885
881
1503
517
51239
민주주의
400000
생겨야
생겨난
가격표
스타트
걸린다거나
##908
금은방
법무법인
모델링
##823
47000
##IBANK
742
743
747
간다던지
##essa
체인점
권리능력
대전광역시
739
7383
9475
824
82000
외환은행
466
인감도장
527
##abab
이시구
시계좌
주인집
카페인
렇게만
##705
110400
15000000
766
764
7620
448
44000
4450
다녀와야
다녀와서
393
을라구
김수철
애매모호
##153
42000
가까워진
493
545
CAPARE
CAPBAE
해진다
##dent
프론트
INC
어이구
우시다
하도급
43000
밀린다고
쩜쩜쩜을
풀릴려면은
정선이
##121
1301
지서원
커다란
867
들어서는
##ick
##ices
김진호
버릴라
버릴까요
습네다
725
721
숨겨놨
##roid
793
느려질
나빠졌
지워진다
날아갈
##TER
41000
4120
내려간다면
까다로와
이래야지
873
빠질까
잠긴다고
929
미루기
미뤄졌
7751
##store
무소식
69000
841
8400
8450
PAYPAL
마침표
김성태
국고금
893
781
연수동
다닌다고
##etter
진해구
쓴다구요
공중분해
살펴봐서
기념품
일러서
일러줘요
10980
##vely
기장군
동양증권
복제기
자원자
받아들여질
931
노동청
절제술
예비군
우수리
ㅠㅡㅜ
일어난다
##imit
##번호로
딱딱딱
이십사인
817
COFIX
105000
살려야
기차역
그럽니까
##한도가
세종대로
이점만
치우쳤
응응응
됫는지궁금
박동성
붙인다는
이충전
적정선
유원지
사천시
9750
##알겠습니당
##riend
유니폼
된다니요
##ould
15560
15650
과도기
크로스
동아리
벌어질
capdpe
wife
집안일
주어질
주어집니다
22200
##더라고요
펼쳐져요
아쉬움
아쉬워서
DSS
증기관
4225
지은이
열린다고
진료비
##계좌로
4990
9601
머지않
뭉개져
통영시
its
itunes
수업료
이뤄진다면
Chrome
SHOP
제철소
그르믄
줄인다
##하고싶
저리로
행자부
헤어졌
시공사
화인텍
been
거려요
동남아
음료수
##그러면
가져간다
유수지
seong
Only
CHAI
##aster
갔다오
상록수
##부탁드립니다
부지런
여의도동
구본형
독서실
부셔서
무주택자
OCR
서두르
서귀포
외관상
잡아내
##ervices
감천면
블라디
좋아하
평창군
머무를
##llGjh
##아리움
##습니ㅏㄷ
래미안
이베트
초청장
화순군
긍금합니다
아리송
안서동
카스퍼스
관절염
comply
ㅇ코드는
ㅛㅓ요
리서치
security
두려움
봣을땐
적격자
천차만별
호스팅
갑상선암
감자탕
공매도
두루뭉
아쿠아리움
어울림
오스카
조영제
가타부타
개지랄
기혼자
##습ㄴ디ㅏ
텔레비전
EBS
wfpmcrd
김숙자
나로호
모잘라서
뮤지컬
아부지
으리라
이발소
##RIHx
VPN
리베이트
스폰서
예컨대
은근히
장모님
##UTING
INVALID
쩜쩜쩜있습니다
040304
Hotel
wpbk
도비니
두드러지
방배동
팔달구
CITIBANK
HOTELS
HSBC
Scraping
faq
oyA
마라톤
백혈병
심부름
어렴풋
##수수료
010005
capxpe
Customer
NCXk
WORL
YCkL
dDRIHx
fVllGjh
html
가처분
낙성대
동두천
때마침
떡볶이
락앤락
무승부
무었인지
민들레
버팔로
불철주야
불특정
소규모
어쩝니까
얼맙니까
요실금
임페리얼
폐질환
한나라당
어쩌고저쩌고
##essage
카스퍼스키
YCkLJU
4780
799
772
719
896
976
Am
AH
And
Amazon
Ci
DF
DO
DDP
EA
EUN
Google
Ha
Isp
Jong
KW
LIM
Mi
My
MMS
NA
Ot
Ok
PT
PS
Pdf
Play
Qr
Qp
QA
QQ
Sh
SRT
TD
Un
UP
VAS
WC
XKT
YU
ag
ahn
bm
book
bpf
dms
dri
dti
friend
gg
get
hp
hk
has
hmall
ji
kz
kj
le
lsi
link
mj
nP
ove
pub
rl
rh
rmf
sd
stm
send
service
services
tz
tr
time
uW
ulr
yh
york
ᆞ외
ㅃㄹ
ㅇ안
ㅇ어
ㅇ노
ㅇ월
ㅇ그
ㅇ록
ㅇ금리
ㅇ아니
ㅏㅠ
ㅏ능
ㅏㅁ
ㅏㅂ
ㅏ합니다
ㅐ출
ㅓㅆ
ㅔ가
ㅛ요
ㅜ어
ㅜ네
ㅜ있
ㅜ감사합니다
ㅠ이
ㅡ지
ㅡ고
ㅡㅎ
ㅡㅁ
ㅡ대출
가소
가거
가란
가십
가원
가분
가온
가존
가라도
가에이
간절
간별
갈린
감방
감분
강건
강속
갘은데
개아
개천
개그
객성
걈사합니다
거소
건거
건면
건마
건주
건국
건드린
것이
게아
게스트
격월
결장
결항
겼는데
겼습니다
경명
경관
경루
계사
계원
계월
계저
계룡
고니
고질
고필
고영
고년
고프
고번
고쯤
골키
공가
공은
과고
과표
관거
광우
광택
광희
괜아
괜차
굅니다
교카
교복
교재
교습
구게
구내
구색
구질구
국진
국통
국왕
국환
국무원
군가
군무원
권사
권순
귀한
규고
규면
균형
그레
그던
그겁니다
극성
글리
금회
금악
금잔
금맥
금붙이
급했
급류
긍데
긍리
긍합니다
기는
기했
기방
기각
기단
기론
기해서
기싸움
긴다
길드
김구
김호
김민정
깨알
꺼니
껍니까
꼇어요
꿧거든요
끼칩니다
나상
나섰
나흘
나몰라
난거
날기
날으
날씬
남용
남포
남발
남통
내동
내수
내영
내번
내심
내단
내꺼
낼려구
냅니까
너른
너희
너머
네사
네셔
넫요
넿ㅎ
노려
노영
노주
노대
노코
노재
놀리지
농조
농수
놓이
놨지만
눈여
눕히
뉘앙
느낍
늘러
능금
능가
니즈
니오
니터
님의
닜는데
다용
다세
다야
다한
다물
다린
다번
다림
다려서
다국적
닥터
단선
단편
단호
단색
달로
달소
답니까
대거
대료
대네
대북
대봐
대접
대륙
대덕구
댑니까
더가
더데
더브
던졌
데드
데어
데빗
데미지
덴데요
뎃도
도사
도정
도실
도등
도연
도매
도둑
도농
독성
독수
돈데
돈어
돌보
동예
동규
동과
동법
돱니다
됫더라구요
두도
두적
두란
둔지
둔다고
둘려구요
뒤쳐지
뒷날
들온
듭네
듭급
등락
디즈
디다
따사
따옴
떡하니
떨려
떨리
떻는
뗀다
또박
또라이
똥개
뜨랑
뜹니더
띵동
라메
랄지
랑시
래주
랬어
랬는데
러일
럿습니다
렇습닏
레인
력전
렬이요
렵습니다
로인
로버
로컬
록지
론지
료의
룡자
루프
류체
르이
리니
리산
리빙
리만
리연
리디
리젠
리핑
리눅
릭케
립방
마운
마랑
마춰
마추
마키
만금
만구
만행
만포
만결
만단
말은
말음
말년
맛난
맛집
망한다
맞교환
매드
매운
매경
매전
매분
매형
맹주
먹여
멀찌감치
멍키
메어
메달
메디
면시
면부
면목
명경
명당
명색
명심
몌금
모신
모야
모공
모터
모색
목수
몰릴
못쓸
무안
무래
무급
무과
묵시
문은
문아
문노
물명
물이
물주
물으니
뭉실
믕한가요
미송
미트
미디
미약
미룬
민인
민법
바운
바고
바져
바꿉
바꿈
박도
박세
박시
박달
반포
반오
반값
반격
발권
발병
발언
발새
방출
방접
방바닥
배출
배추
배꼽
배움
백거
백해
뱅어
버턴
버젓
번하
벌벌
벤처
벤치
벤튼
변태
변해서
별안
별것
별수
보요
보마
보재
보문자
복통
복건
본관
본문
본집
본연
본과
볼지
봉담
부토
부후
부릅니다
부으면
부어도
북로
북청
북스
분거
분주
분단
불시
불결
뷴실
비도
비보
비주
비웃
빈호
뺄려니까
뻔한
사직
사황
사윤
사방
사외
사별
사탕
사몽
산단
삼청
삼고
삼아
삼총
삼줄
삼초
상행
상분
상과
상채
상술
상충
색달
생시
생면
생필
서강
서실
서출
서태
서외
서단
선대
선형
선교
선책
설어
설득
설전
설령
설저
설맞이
성회
성선
성용
성면
성음
성보
성급
성북
세관
세정
세오
세심
소구
소위
소결
소울
속지
속아
속마
속속
손서
손볼
손쉬
송상
송별
송천동
수포
수전
수속
숨겼
쉅게
쉬웠
스도
스님
슬라이
습한
승서
승객
시드
시조
시합
시마
시음
시항
시후
시큐
시비스
신게
신총
신댔
신문고
신답니다
신곡동
신안군
실계
실문
실타
실결
실전
실실
실체
심서
심성
심할
심히
싱고
싳습니다
써져야
쏠렸
씌여
씨에
씨실
씹하
아카
아중
아한
아앙
아방
아그
아퍼
아다고
악명
악마
악재
안거
안원
안현
안암
알바로
압출
앙해
앙이
앙앙
앟는데
애야
애경
액일
야요
약점
약대
약전
양증
양일
양형
양키
어사
어어
어근
어특
어다가
억정
언닌
얼구
얼린
엄어
엄두
없는
엏는데
에지
에오
에치
여럽
역곡역
연납
연설
연착
연다는
열개
영요
영행
영미
영경
예영
예랑
예쁜
예뻐서
오준
오질
오모
오환
오븐
옥반
올되
옳바
옶어요
와어
외계
외할
외박
요예
요래
요어
요급
요식
요해지
용법
용의자
우크
우세
우래
우방
운서
운명
운지
운정
울진
웃겨
원명
원사
원안
원임
원무
원랜
원피스
원터치
월선
월중
월계
월년
월복
월액
위방
유서
유적
유고
유음
윤달
율어
융공
으료
으앙
으다면
은주
은실
을가
응구
응해야
의회
의적
의대
의존
의논
이강
이실
이화
이당
이투
이잉
이현주
인조
인회
인선
인행
인료
읺습니다
일은
일임
일목
일랑
일양
일대기
일레븐
일걸요
임마
임호
입상
입량
입김
잉글
자야
자음
자개
자돈
자종
자꼬
자존
작렬
잖어
잘기
잠사
잠적
잠심
잠바
잠들
잠꼬
장해
장음
장발
장항
장충
장거리
재추
재덕
재팬
쟁이
저회
저제
저원
저으
저냥
저버린
적가
적한
적실
적십자
전조
전락
전량
전광
절하
절후
점안
점상
접시
접했
정방
정월
정발
정남
정배
정환
정씨
정삭
제르
제환
제국
제이드
져간
조공
조방
조두
조교
종세
종통
좌원
주행
주물
주러
죽인
죽음
준기
준원
준형
준석
중음
중풍
중보
중후
중반기
즐거
증재
지프
지애
지쳐서
직상
직군
직역
진요
진아
진리
진학
진즉
진데요
집세
집값
집배
짜내
짝짝
쩜산
쩜되
쪼록
쭐이
쭸던
찌요
차도
차용
차간
창경
창배
채류
챗상
챙겼
천예
천적
천신
천기
철원
첫해
청라
청선
청계
청창
청량
체래
체포
체말
체부
체감
쳐봐야
쳣는데
초침
총회
총은
총상
총기
총리
총각
촤대
최세
최인
최주
최전
최개
최태
추납
추은
추기
출두
출창
충주시
취인
츌은
치워
치질
치문
치루
치프
치원
치뤄
친지
친목
친다고
친환경
칠서
칠요
칠상
카레
카디
카오스
캐피
캐스
캐디
캘린
컨디션
컴백
케릭
코타
코랄
코웨이
콘택
쿠나
퀴송금
크란
큰지
키스
킬로
타도
타거
타아
탁사
탁탁
탄신
태구
태백
태극
택할
터트려
테러
테스터
토다
통회
통가
통했
통대
통방
통심
통닭
투피
투데이
트임
트레이드
특화
티케
티저
티셔츠
팀원
파벌
파미
파생
파본
페포
페인트
편고
편면
평시
평산
평온
폐암
포안
포비
폭탄
폰더
표도
푼돈
품주
풍선
프링
프라인
피포
피대
피처
피해서
핀테크
필욘
핑퐁
하합
하수
하전
하근
하치
하급
하저
하녀
하님
하법
하민
하메
학력
학과
한회
한수
한장
한독
한남동
한바탕
항도
항요
항송
항진
항수
항복
해하
해설
행말
행결
햔드폰
햤습니다
향수
허다
허재
허탈
허술
헌금
현용
현증
현존
형서
형부
혜량
호적
호시
호치
호재
호바
혼인
홀릭
홍규
홍초
화경
화제
화산동
확진
홧인
황은
회도
회용
회적
회송
회하
회정
회랑
회식
효원
후도
후고
후한
후분
후건
후론
후취
후딱
흘렀
희안
히니
히다
히에
##금융
##요연
##sw
##sfer
##bp
##ble
##national
##조심
##구리
##BNB
##TC
##용조회
##세이
##람널
##람낭
##mart
##ai
##ash
##lt
##lab
##land
##안보
##안됫
##소통
##ㅇㄷ
##성의
##시안
##하게
##하려면
##려는
##아도
##아무
##진짜
##ims
##418
##456
##310
##한번
##포스
##해주시면
##이상
##이내
##이라고
##이에요
##마을
##미터
##미션
##나용
##나지
##나항공
##여기
##wS
##SA
##SHION
##em
##ew
##day
##oy
##og
##ok
##오천
##오티피
